#version: 0.2
t h
i n
a n
e r
th e
o n
r e
a t
o r
e n
o u
s t
a l
in g
t o
an d
e d
e s
i s
i t
a r
o f
a s
l e
i c
i on
o m
c h
s e
i l
en t
v e
y ou
b e
r o
f or
a c
d e
l o
l y
a m
w h
a d
a y
w e
w i
l i
v er
a re
n o
g e
s u
i m
c t
th at
at ion
wi th
o l
a b
u n
c e
i g
c om
n e
p ro
u t
i r
c on
s h
m o
i d
t er
u s
k e
a p
u r
t e
th er
p e
il l
t r
h e
al l
f r
i f
p er
u l
s o
ou r
p o
p l
th is
e x
m a
es s
h a
at e
re s
m ent
ou t
you r
d o
f e
m e
t s
q u
er s
on e
l d
c an
t a
c o
g o
p r
ou n
it y
2 0
h o
w or
ar t
ha ve
b y
fr om
w as
i ve
i st
b o
ig h
u st
ac t
l l
o p
i es
no t
a g
g h
w ill
om e
m an
g r
an t
i e
c l
er e
en d
b ut
u p
i v
in d
ar d
i al
p or
i p
in e
ou ld
u m
ab le
t im
a st
k ing
w n
o d
a ge
e m
0 0
u d
ic e
h as
i de
a in
】 【
the y
m y
d er
u re
ac k
al ly
com p
y e
ou gh
b r
s er
d ay
an y
f o
c re
ion s
mo re
u se
a v
o k
a f
por t
lo w
s ome
ver y
ic h
igh t
d u
it e
o ther
s p
the ir
a ch
at ed
i re
ne w
oun d
for m
f er
20 1
w ay
no w
i z
c r
as s
wor k
t y
ou s
an s
e l
st r
ther e
e v
ge t
ac e
b er
on g
t ing
p re
tim e
re e
wh ich
e st
m ar
ab out
wh en
en ce
ig n
c k
b l
in ter
it s
am e
d is
d r
al so
wh at
i a
p art
i b
com m
as e
an ce
wh o
th ing
s a
is h
ye ar
s pe
li ke
d es
f ul
p res
c ess
c ol
ct ion
p le
c a
th an
i le
ic al
h is
1 9
o ver
ation s
con t
c or
re n
j ust
ser v
of f
pro v
j o
l a
ent s
ar y
ne ed
it ion
m in
po s
h er
b u
c ent
the m
e p
g re
ho w
c oun
ch o
f ir
mo st
w o
c ial
ic k
or s
en s
m ay
s y
in t
be en
ad d
at er
g u
p h
1 0
ap p
w ould
e f
he l
il d
m on
the se
re ad
s on
f in
sh o
we ll
lo g
c ur
w ere
a il
th r
h ad
ol d
j e
ma ke
c ar
a u
in to
n ing
pro du
hel p
m ed
u e
sh e
ta in
a ir
in k
b ack
en c
a k
in cl
c i
or y
on ly
fo re
ver s
p ar
op le
at ing
pe ople
fir st
e very
se e
re g
be t
pl ay
thr ough
h igh
. .
r y
af ter
) .
an g
k now
ment s
e t
v is
un der
c al
i o
at es
man y
su r
su p
v ie
t ed
d on
wh ere
ic es
se l
the n
d if
st ud
l ine
f l
i an
20 0
le ct
en g
b us
ex per
com e
c er
se t
fe ct
g en
re d
ar ch
go od
t ion
i ous
an ge
do wn
f un
o se
it ies
h ome
ev en
u al
je ct
ul t
t wo
w er
is e
p u
k s
st and
be st
c le
ca use
us ed
if ic
in ess
w ant
l and
s m
b s
h ere
a w
re qu
ro w
des ign
t al
o wn
m u
v ing
in st
vie w
ve l
su re
in form
f ind
li gh
ch e
ib le
me m
b as
l ess
w r
sh ip
i ed
l es
il y
bo ok
m at
al th
sh ould
s s
at ive
il ity
st em
ur n
bus iness
m s
公 司
year s
li fe
c ould
gre at
incl ud
1 2
l ong
lo ok
x t
s im
le t
su ch
v al
ta ke
wh ile
y s
res s
wor ld
sy stem
t en
ation al
ve lo
per son
u res
tr y
pl ace
in s
ul ar
be cause
st art
to p
s k
con d
b le
f ree
de velo
mu ch
c all
produ ct
inform ation
ro om
f am
dif fer
t re
c es
ic s
ing s
on s
中 国
is s
r ight
c are
te ch
ma de
tr a
ch ar
pl an
p t
p ol
tr ans
str u
a th
sel f
t le
c ed
se arch
al s
g an
l ed
su l
c ap
n er
e ach
r a
1 5
) ,
3 0
id ent
way s
pr of
con s
l ar
sa id
we e
exper i
ne t
un i
ur ing
li st
d s
sho w
h and
be fore
develo p
do es
o b
v ed
c lo
su b
ke t
prov id
pu bl
c our
w in
be ing
d id
re l
gr am
th ose
c ust
n um
st o
us ing
st er
l it
e as
it ed
d at
al ity
p ut
1 8
ic t
p at
i x
comm un
f act
e ar
cust om
lo ve
comp le
n or
am p
po st
s ol
v es
f ol
s al
o t
te m
l ast
a z
一 个
1 1
s ay
serv ice
as h
ag ain
pro gram
ch ild
le ad
k es
cho ol
at t
gen er
p lo
iz e
ou p
p ur
可 以
st ate
d y
d ire
he alth
ag es
pro cess
d ing
v ol
s chool
s ing
w ater
comp any
te am
w ard
de l
b re
工 作
t on
pe ct
differ ent
t urn
ligh t
5 0
h u
av ail
m er
ar ound
g er
ou se
bo th
v en
le ar
s ign
to o
le g
sup port
f ound
00 0
of fer
f ic
ma in
f il
h im
co ver
r i
ad v
o c
s in
th ink
p ay
b ro
re ally
n ational
pl ic
s ide
go ing
he ad
v ar
te st
pres ent
as on
r un
lo c
serv ices
am er
pro ject
we en
re al
th ough
w ar
op en
bu ild
dat a
b ar
我 们
n ess
ke ep
or gan
or der
it al
st ill
de c
avail able
im port
po wer
d i
fol low
fe el
c ut
or t
ter s
cl ass
dire ct
qu e
发 展
s ame
c li
wee k
bet ween
g iv
gr oup
it ing
pos s
d uring
fr i
in es
res p
p ho
lo t
pres s
c y
an n
h app
po int
o king
h ouse
i or
al low
ta il
lo ad
fri end
st e
sm all
o per
m us
d ist
ren t
c u
g y
in cre
v ir
c us
g l
experi ence
iz ed
inter est
on line
mon th
fam ily
re sul
re ce
co st
is su
m iss
fe at
tim es
part ic
requ ire
ed u
企 业
1 6
log y
ch r
ess ion
p ass
ex am
f ace
sin ce
o s
includ ing
ab ility
num ber
publ ic
b al
su m
for t
n at
ve st
th ree
服 务
b ig
le vel
with out
b en
po t
w a
la w
al ways
as k
lit tle
fe w
bas ed
b an
id er
spe cial
an other
spe c
ne xt
ef fect
qu ality
m ust
lar ge
f ac
v o
ro ss
thing s
qu est
w on
s of
prov ide
c as
1 4
pro per
cont in
ac cess
pho to
m it
go t
u ally
管 理
day s
an ts
ful l
bet ter
cont ro
f t
s it
f ar
v ent
c ity
read y
ho we
a de
i ent
ch ange
howe ver
pe t
import ant
at ch
to day
ic ally
se cond
re search
we bs
h y
2 5
are n
ur al
st y
- -
are a
g ive
1 3
ple ase
自 己
con tr
w al
s ite
h ard
cur rent
in vest
wor king
gr ap
ap pro
m ic
ce ll
jo y
add ition
tr ain
pro ble
m al
1 7
a ut
l s
wh y
i er
ut ion
t w
with in
u de
f a
fo od
p a
am es
wh e
产 品
sh are
s en
g ame
ie ld
re st
un t
技 术
进 行
ard s
p s
ish ed
1 00
bu y
some thing
g row
2 4
r ic
lo oking
che ck
pro te
e qu
pr om
lo cal
ma il
r u
pr act
ap plic
ke y
con ne
h ar
m ill
amer ic
p ed
mem ber
s ou
m ight
it ch
mar ket
ne ver
b it
g a
su n
ust r
de p
su c
g in
使 用
p ing
cons ider
ate ly
one y
bo dy
po p
ist s
h our
ma king
ent ial
研 究
b ers
mo ve
ch ang
p ly
sh op
19 9
product s
c ase
e lect
tech no
com es
coun t
b ed
s c
l u
child ren
stud ents
uni vers
提 供
go ver
col le
man age
stru ct
iv id
h ist
b lo
k en
b or
prof ession
lear n
ar r
em plo
201 8
ut e
webs ite
市 场
a im
on d
s ch
act iv
ap pe
e ver
on ce
comple te
v i
st ep
enc y
eas y
en joy
h old
under stand
f re
4 0
ev ent
sa fe
m en
m or
m ind
vis it
p ain
on t
n ame
li ve
re le
6 0
t t
on es
se ver
act ion
cour se
at or
commun ity
or d
i um
edu c
t ic
信 息
wo od
p age
ent er
ge st
poss ible
b a
m oney
n ight
教 育
f ield
suc cess
. "
be li
r is
be aut
w w
a way
h al
re port
need s
ex p
as ed
w om
b ab
v ide
ha ving
m ater
tre at
develop ment
gover n
person al
f lo
cont act
de li
to ge
p ast
201 9
so cial
toge ther
al ong
cle ar
国 家
st ar
th or
k ind
u es
end ing
bo ard
ex pect
f our
没 有
k no
iv es
s co
end ed
! !
cre ate
re view
ful ly
d ate
de tail
tr ad
em s
c ame
su per
e u
of ten
.. .
mater ial
en er
com ing
enc es
per fect
b ur
te l
chr ist
f ast
au to
d en
gr ound
mo del
mus ic
n on
we b
l ing
cle an
pr ice
por ts
g ar
g n
st or
. ,
l an
unt il
s ci
ind ivid
te ach
re cor
de v
ie ty
m il
ter n
sp ace
通 过
8 0
经 济
m ult
an al
univers ity
ap er
p an
go d
re cent
cer tain
s w
li m
spec ific
so ci
conne ct
if ied
l ate
bl ack
iz ation
pl ac
it ions
l ink
c amp
f ur
2 2
ben ef
a h
comp an
s at
ne ar
are d
work s
id s
at s
ce pt
主 要
j u
b all
f ig
cr u
inst all
individ ual
m id
min ist
cont ent
g s
do w
l ab
ic le
a ud
contro l
in c
f it
p ack
b i
again st
is m
c ard
to ol
in a
it ive
问 题
pr iv
e le
时 间
incl ude
qu ick
un ch
系 统
ill s
manage ment
af f
col or
li g
ro ad
wi de
ma j
down load
en vir
mar k
or ig
d one
f ut
envir on
hu man
le ft
cent er
se ll
if y
port un
op portun
bo x
d am
就 是
a ve
ma kes
sever al
spe ct
ar ing
as soci
be come
mar ke
whe ther
techno logy
me an
n am
wh ite
w all
, ”
le y
do or
jo b
is ed
iv ed
ph one
t able
in al
ty p
be low
ir d
ex t
tr u
kno wn
p ie
ab o
other s
me ans
we st
wr it
get ting
te ll
n a
br and
pur ch
k er
ter m
govern ment
to wn
ac cor
coun try
ure d
ire d
we l
u b
v ious
off ic
社 会
se ason
de al
ne y
off ice
ty pe
设 计
201 7
t our
tech n
se cur
sty le
st op
cr ip
win dow
build ing
is ion
f low
um p
2 3
r ound
man ag
f av
专 业
mo t
clo se
r ange
grap h
com b
op t
w atch
g lo
cre d
sh ort
fin an
me th
l in
n g
re du
wor d
en ough
s our
以 及
maj or
。 ”
e con
ta x
re am
sp ir
st ory
if ul
f f
ens ive
大 学
需 要
ind ust
te xt
al ready
de fin
inter national
ch an
u k
ro ll
br ing
d ro
vide o
indust ry
str ate
econ om
ac ross
st ay
val ue
他 们
per for
y es
igh ts
生 活
s pr
ut es
eng ine
pos ition
fut ure
g g
gr ad
con tain
活 动
call ed
stud y
pro ve
mem bers
世 界
p ict
cl ick
7 0
ho pe
p y
an ta
e mail
b log
s cre
perfor man
profession al
au thor
compan ies
pl ain
fr ont
s ound
environ ment
am az
do ing
c ast
u su
项 目
文 化
beaut iful
for d
exam ple
re f
o g
m om
ur y
h ol
act ive
第 一
re turn
ye t
im p
me t
i th
的 一
un d
f all
hour s
生 产
其 中
off ers
s ize
b and
2 1
ho st
se lect
re t
partic ular
ch all
oun t
add ress
train ing
is ing
安 全
fur ther
bre ak
l t
act ually
d om
giv en
建 设
可 能
cl aim
every thing
re comm
d ed
m ing
如 果
tra vel
i ther
med ia
m i
comp ut
than ks
du e
f ire
new s
c ult
” ，
c ou
l ish
中 心
comm it
in o
sou th
f ill
pol ic
re ason
w ed
ap s
custom ers
sim ple
ener gy
fl u
li ving
p air
ac y
ma ch
no v
resul ts
resp ons
mo b
feat ures
ass ist
ta king
reg ist
ac count
in vol
jo in
d ig
ph ys
start ed
是 一
c ing
secur ity
in ation
be gin
e ve
ough t
abo ve
2 8
re ach
s am
国 际
le ast
ear ly
str ong
dis cus
accor ding
方 面
proble m
sto re
part y
2 6
proper ty
a go
wom en
char ac
eu ro
con cer
an k
nor th
的 人
min utes
t ar
dep end
201 6
il ities
re co
ser ies
me e
j our
follow ing
quest ions
c ir
p aper
m ess
gre en
performan ce
g es
did n
gener al
system s
i ents
d ou
北 京
hal f
sing le
同 时
st ates
m p
meth od
educ ation
friend s
ar s
ma g
h n
custom er
in sur
已 经
he art
9 0
americ an
r ad
par k
2 7
does n
o il
mill ion
l ater
b at
cial ly
z e
b ill
重 要
issu es
un e
这 个
st at
ut ions
n y
hist ory
, "
ce p
成 为
h am
il t
r ation
per form
p al
than k
am ong
im prove
provid es
pr im
in ts
re fer
commun ic
l ic
ag ree
com pet
de f
te e
mo der
er y
n ed
科 技
re mo
won der
en se
though t
nat ural
b on
cho ose
pre t
led ge
u ary
month s
h or
学 生
i od
tw are
政 府
discus s
de part
es pe
ar k
sof tware
i but
p aren
g old
工 程
me as
res our
var ious
f ive
什 么
us er
equ ip
st aff
g ames
r al
uni que
i ans
per iod
partic ip
design ed
it or
人 民
i ate
ct or
ide as
s il
bo t
投 资
pl es
wr iting
do cu
平 台
effect ive
in it
学 校
j an
are as
sim ply
fun ction
lear ning
every one
x im
man u
co de
us es
ib ility
有 限
who le
ne cess
19 8
不 同
fo cus
p ick
ide a
finan cial
require d
g ress
to ok
cor por
ip s
e ither
some one
r on
201 5
you ng
行 业
m ber
p m
rel ation
espe cially
r ate
3 5
appro ach
mat ch
其 他
reg ard
n al
insur ance
say s
s av
issu e
m and
miss ion
op tion
no te
大 的
jo hn
vers ion
fo ot
happ en
il ar
com fort
se en
an ces
con f
iv al
id es
s an
comm on
tr ack
ver t
applic ation
col lect
prote ct
it ical
ou ch
en sure
im age
l er
happ y
p en
作 为
b ir
loc ated
includ es
ck s
rel ated
quest ion
un ited
re present
数 据
目 前
per cent
po se
ou d
m m
fre sh
a ther
am ount
wor th
l on
b ad
opt ions
w ent
e ast
manu fact
t it
ul ation
inter net
m b
for ward
2 9
requ est
ex ist
u g
要 求
美 国
d ie
sal es
provid ed
qu ite
内 容
中 的
l ines
st ree
部 分
好 的
need ed
su g
pres ident
mee ting
th ird
an im
品 牌
ev ents
resul t
net work
b ase
beli eve
” 。
comm er
pos ed
euro pe
所 有
iv ing
med ical
pot ential
id ence
全 国
具 有
s le
p li
stru ction
d in
me et
mob ile
like ly
add ed
r am
know ledge
wor ds
i i
4 5
wal k
for ce
ach ie
c up
b ud
人 的
ur ch
o re
dis play
方 式
u ation
co ok
表 示
sug gest
alth ough
pre vious
in te
al most
h ind
pr int
we ight
ent ire
sign ific
m r
pl ant
fav or
因 为
as ing
so on
bl ue
t ur
情 况
fe e
dr ive
i k
sel ves
ve h
sim ilar
pop ular
cer t
cred it
priv ate
pl at
emplo y
ward s
m ass
201 4
chang es
et c
er ing
r ich
so c
your self
book s
cour t
g ed
sk in
n ice
scre en
ch urch
detail s
through out
w ish
gu ide
stand ard
current ly
ex c
se ction
ip le
人 员
ent ly
ter min
合 作
was h
ban k
游 戏
ab les
ent ion
r ing
ris k
f ile
了 一
marke ting
m as
k ids
reg ion
f ish
组 织
moder n
us ers
s ent
usu ally
ex cell
网 络
t u
lab or
v an
any thing
fin al
ta ken
treat ment
sa ve
land s
tal k
用 户
trad ition
g if
g ree
inst e
de st
g ing
inst it
3 6
proble ms
f ail
read ing
colle ge
v ia
s mo
网 站
很 多
id ed
g ard
cre ated
dif fic
or ies
deli ver
m ix
ra ther
at ors
孩 子
学 习
st ain
tr ust
re li
包 括
cli ents
pract ice
开 始
bu ilt
st ic
环 境
est ab
相 关
y or
addition al
s qu
loc ation
to tal
at ure
s ix
reg ular
emplo ye
能 力
to m
g ir
有限 公司
po ints
： “
城 市
it es
非 常
质 量
fil m
ple ment
orig inal
影 响
ag ed
sum mer
5 00
el se
tr ue
re ct
inste ad
不 是
pr ior
fir m
ex e
s es
th in
inte gr
到 了
c at
co ol
flo or
b ath
ap r
sub ject
sof t
int ro
ag ing
f air
mic ro
ef fic
rece ive
pre p
spe ak
dr aw
fam il
at tr
glo bal
ins ide
prom o
所 以
b ul
ro le
lim ited
l ay
comput er
h om
ex tra
i res
contin ue
d a
ho t
n ers
recomm end
signific ant
polic y
ac c
relation ship
re member
pro bab
opportun ity
k itch
fe ed
offic ial
ob ject
an e
a ver
dig ital
want ed
app ly
现 在
coun ty
high er
g as
s ens
is es
incre ase
med ic
科 学
201 2
se em
low er
con st
res pect
v in
设 备
/ /
. ”
contin u
大 家
window s
spe ed
产 业
也 是
probab ly
out side
run ning
ha ir
这 些
ma ster
收 入
功 能
f le
sk ills
h i
ex press
cr af
ta kes
reco gn
set ting
f ed
ific ation
up on
act ions
amaz ing
part ner
he ld
m ac
produ ction
实 现
ad a
h tt
ww w
lo ss
leg al
p ul
it ems
cho ice
be l
mat ter
） ，
imp act
pret ty
contr act
stud ent
上 的
ans wer
depart ment
sal e
r or
s or
ap e
is n
pl us
t ouch
er al
try ing
activ ities
charac ter
s we
的 是
intro du
grow th
ce le
vis ion
n s
no thing
project s
d iv
应 用
支 持
lan gu
gl ass
yor k
提 高
a ustr
an ced
art icle
cond ition
ad minist
in v
ph il
per s
w il
sto ck
a ur
c ross
par ts
ter ms
colle ction
le ave
resp on
dr y
自己 的
m oun
some times
201 0
se c
t v
201 3
main tain
he av
eas ily
su it
kitch en
s end
r id
ex plo
lead er
safe ty
he ar
m c
cl ub
s po
any one
t ies
ex act
stree t
sci ence
f ine
p ath
ie f
rece ived
exe cut
equip ment
ne l
sol utions
但 是
s ong
material s
se qu
3 1
根 据
diffic ult
necess ary
go og
c and
room s
g ain
j ud
201 1
汽 车
开 发
ge ts
sour ce
can not
cr ib
标 准
资 源
mo ther
cover ed
be hind
cele br
allow s
purch ase
都 是
7 5
contr ibut
st one
f ix
9 9
s ed
typ es
gr and
上 海
st u
includ ed
giv ing
b t
cond itions
plat form
goog le
anal ys
a fr
var iety
客 户
av o
ic a
tr ies
dro p
re main
ail y
ch air
qu al
方 法
long er
分 析
cl in
o h
am a
s n
br id
ul es
re pair
选 择
recent ly
show s
qu ar
pre vent
look s
d aily
h it
8 8
ens ion
sol ution
ho tel
基 础
h one
es e
pat ients
be ach
appe ar
f i
b ag
provid ing
对 于
late st
tool s
enc ed
t or
b io
de ep
: //
log ical
u gh
pie ce
is on
tra de
iz ing
mach ine
cor rect
resour ces
to ld
fer ence
ind ic
excell ent
、 《
co py
ad o
au g
quick ly
mar ch
a ke
lead ing
aw ard
n es
program s
h ib
an a
de cor
代 表
c ro
ver se
w ise
时 候
ann oun
th us
cost s
w are
wee ks
这 样
in nov
austr al
er ed
f urn
获 得
app li
集 团
创 新
sup pli
in j
pl ans
lo ts
apr il
recor d
al e
sh all
con sul
dr i
li ves
3 3
wr ite
一 些
ho sp
万 元
国 内
mo d
完 成
任 何
教 学
ke ts
ess ential
mor ning
af fect
n ut
机 构
exper t
ac ts
se ts
end s
su f
li d
ab ly
过 程
ro ck
fin ish
cou ple
im med
min im
work ed
拥 有
ce ed
chall eng
expect ed
地 区
ar m
建 筑
la unch
e ase
de ath
em er
high ly
ho od
im ages
h ous
ask ed
as es
se ems
up d
i ence
c il
se par
a king
paren ts
may be
in de
writ ten
d le
sm art
c ate
bo o
单 位
ro y
ex tre
r an
r ights
学 院
面 积
第 二
dev ice
rest aur
cas es
plan ning
cent ral
sen se
ist ic
d an
cr im
s and
docu ment
sa w
p c
prov ed
ch ance
处 理
s cal
不 能
pre m
level s
il le
benef its
commer cial
gu est
blo ck
w ind
ic les
年 的
res er
con struction
f ab
ex plain
pr in
出 现
po ol
du ct
mult iple
发 现
direct or
he at
手 机
e ye
de mand
控 制
go al
im plement
3 2
ligh ts
at ic
cr y
sc en
ac com
tr ip
了 解
r us
还 是
pr ices
价 格
organ ization
结 构
bo w
fin ally
d ream
te le
c ab
作 用
d ol
enc our
ser ve
g or
ant i
analys is
s l
nat ure
favor ite
h on
c ul
te x
fr id
mom ent
coun ter
由 于
， “
g ro
r om
interest ing
lo ck
政 策
个 人
v ill
c ash
ac ade
hu ge
ad vis
care er
dec ision
200 8
be y
stor age
tradition al
c amer
play ers
一 定
aver age
p i
ch ina
sit es
r ain
cli ent
pre ci
k y
知 道
— —
历 史
200 9
ent al
iz es
" .
基 本
crip tion
coun tries
plac es
f u
aw are
le av
adv anta
ment ion
el s
langu age
lo st
tar get
bor n
spir it
ho li
help s
e li
char ge
feat ure
d av
健 康
4 8
能 够
extre me
因 此
l low
不 断
gard en
cl us
anal y
face book
ay s
americ a
ct ions
do g
pict ure
ap point
invol ved
h ab
发 生
艺 术
st ren
自 然
blo od
oc cur
5 5
giv es
ch em
it self
cre ating
采 用
ass ess
k a
ap art
pos itive
hist or
require ments
ch es
pl ate
own er
group s
来 的
spr ing
post ed
play ing
fr ame
》 、《
fe st
att ention
there fore
comple x
bro ad
消 费
photo s
cal i
at ory
ri but
cons ist
rele ase
direct ly
3 8
applic ations
reg ul
ind ustr
系 列
se a
ser ious
sur pr
ind ia
以 上
form er
stren g
一 般
n ation
pre fer
eng lish
dist r
m is
in tel
thin king
strate g
mo tion
lo ved
se cre
defin ite
h un
f an
ad es
res ol
avo id
em p
c ise
sup ply
them selves
为 了
br it
或 者
se p
serv ed
形 成
认 为
soc iety
phys ical
develop ed
start ing
更 多
str a
ord in
bir th
各 种
p ages
ac qu
mid dle
k ill
dist ribut
s pot
3 00
achie ve
success ful
a id
业 务
j une
这 种
需 求
health y
veh icle
部 门
ent ry
publ ished
li br
invest ig
go es
” .
un it
材 料
计 划
m l
3 4
s is
understand ing
亿 元
m ap
r up
fa ther
econom ic
plac ed
r ied
appro pr
complete ly
mo ving
sp end
st age
】【 ，
er ous
list en
s old
activ ity
or g
invest ment
】【， 】【
开 展
let ter
interest ed
bab y
d im
a ign
a x
记 者
in ed
20 00
im ag
we ar
techn i
pa id
a i
htt p
con duct
pro gress
全 球
end er
grow ing
christ mas
dec ided
play er
? ?
friend ly
销 售
camp aign
b row
19 7
cap ital
一 步
my self
di ag
co ach
wa it
grad u
stud ies
r ap
organ iz
r ac
lon don
le ction
pur pose
de ce
att ack
in depend
tem per
over all
it ure
ar an
e at
精 神
wel come
r ace
n ia
employe es
business es
6 5
as ons
in flu
s ports
s li
en h
individual s
ear th
ex er
sy n
de mo
m ir
stand ing
ann ual
con ference
f ly
作 品
re place
gr ade
如 何
新 的
关 系
3 7
definite ly
on to
ob tain
wonder ful
trans port
领 域
之 一
c it
ne g
t ren
200 7
pict ures
be ha
pat tern
b ay
is land
st ation
电 子
pay ment
ac king
有 效
coun cil
工 业
hand s
k o
th re
ther n
这 一
trans fer
建 立
d ark
hom es
per h
af ford
一 起
商 品
ser ver
sub st
ent y
ct ure
c of
增 长
iss ion
st ress
ri ver
perh aps
so lid
而 且
还 有
他 的
f requ
respon se
t ro
ta ge
fig ure
ur s
to wards
地 方
con sum
at tem
3 9
car ry
pol ice
负 责
智 能
直 接
view s
保 护
发 布
prote ction
… …
school s
经 营
dou ble
% ，
中 央
sat ur
希 望
sle ep
gif t
s low
iv ity
bud get
jour nal
im press
pres sure
d ress
be came
4 4
exact ly
cent re
elect ric
mess age
cult ure
cap e
cre ative
de ad
associ ation
wed ding
cate g
jan uary
ast ic
li am
教 师
j ack
ad vert
sat is
日 本
交 易
fl or
su bs
en ge
ma xim
c am
pat ient
la ke
g al
tr ail
解 决
ju ly
me tal
benef it
manag er
op tim
pol itical
b b
之 后
ste el
res id
wr ong
init ial
金 融
consider ed
ad just
v ac
bas ic
利 用
ne igh
bey ond
j es
存 在
nor mal
ib ly
g am
im m
v ille
est ate
o x
id a
opportun ities
j ap
p sy
de gree
进 入
st ream
be gan
综 合
back ground
wash ing
w ild
成 功
dam age
st on
全 面
deli very
c d
de termin
tit le
tem por
to ber
200 6
参 加
l at
io s
r ates
v it
offer ing
ter y
st ick
介 绍
ac cept
比 较
p x
lit er
y o
一 直
go als
w s
提 升
f at
g all
al tern
公 里
第 三
comp on
com ment
frid ay
comfort able
tem ber
h all
moun tain
vi ol
mo vie
li er
朋 友
成 立
知 识
委 员
furn iture
♀ ♀
no ve
ab sol
cali for
sep tember
oc tober
far m
fe lt
l am
pro ced
i ately
p d
famil ies
col our
fun d
mar y
z a
g un
模 式
联 网
we ather
b um
differ ence
cep tion
jap an
今 年
war m
de mon
水 平
cof fee
effect s
n av
crip t
w inter
fo c
sit uation
sur face
begin ning
stu ff
consul t
he st
regard ing
ac cur
ch amp
增 加
g i
cru sh
ev al
absol ute
n ur
旅 游
ap ple
arch ite
redu ce
ef fort
n i
auto mat
ther ap
vo ice
fr u
ve y
cr it
califor nia
chall enge
est im
ac coun
d ur
pu sh
gu aran
experi enced
sci ent
6 4
certain ly
s wi
bot tom
co re
eng th
dev ices
au gh
la x
t ree
现 代
c ards
can cer
z er
f ight
r ou
not ice
bro wn
vent ion
agree ment
显 示
m ate
resp ond
s cr
的 大
培 训
grap hy
sur round
ide al
w ast
i ation
is ions
can ada
2019 年
comm ission
exist ing
su stain
交 通
cap t
香 港
des crib
fr an
appropr iate
aug ust
r ies
ed ge
rele ased
feel ing
ded ic
adv ice
effic ient
oper ation
ag ue
h ig
ul tim
mot or
ar gu
sub mit
ch ed
br ain
sho t
软 件
stor ies
meas ure
associ ated
lu ck
in come
and s
as pect
fed eral
fe et
up date
老 师
达 到
n ic
ap preci
o th
chang ed
c c
dece mber
su me
res ist
w ine
操 作
squ are
c iv
techn ical
on y
found ation
改 革
cent ury
d ance
银 行
eas ier
t ips
wi re
w ers
ch ap
nove mber
elect ron
l ad
own ers
form s
r ules
th ous
ro of
bas is
incre asing
媒 体
fil es
co ast
strate gy
责 任
领 导
ive ly
offer ed
那 么
in struct
produ ce
gre ater
respons ible
出 了
sw itch
e yes
tru ly
was n
distr ict
communic ation
6 6
struct ure
mean ing
f ash
des p
qu es
it em
ut il
l ength
fle x
c um
prof it
swe et
me chan
b es
sec ure
play ed
传 统
con ven
pe ace
sun day
col d
m art
craf t
adv anced
sho wn
v a
有 关
医 院
ic ed
se ven
z z
我 国
ant ly
il ing
ga ve
wom an
do ors
ref lect
li mit
corpor ate
incre ased
rus s
fort un
week end
4 9
bo y
sp ent
in sp
at ives
clean ing
制 度
ant ic
） 。
he ard
dis ease
v ic
会 议
se lection
特 别
it ation
report ed
use ful
europe an
p tion
cand id
col labor
h ill
m use
jes us
效 果
% 。
re move
tr af
dis cover
j er
e th
r ant
fash ion
int en
重 点
实 施
电 影
ar ies
num bers
be ll
hosp ital
p ic
step s
immed iately
用 于
方 案
cas ino
h ur
必 须
特 色
tr ied
model s
hig hest
之 间
看 到
particular ly
large st
h um
method s
体 育
ident ify
satur day
desp ite
br ought
mult i
dis h
运 动
al one
secre t
publ ish
enter tain
p il
视 频
orig in
计 算
re ve
stra ight
m es
ex hib
keep ing
结 合
l ished
review s
comple ted
价 值
austral ia
ous ly
mon itor
prim ary
这 是
目 标
help ing
不 会
li es
vir t
add ing
ar ily
d ut
it ary
体 系
ch ain
brid ge
9 5
l as
estab lished
al ing
规 定
” 、
ar ts
ren ch
我 們
extreme ly
te en
dr ink
re lax
pre d
cap ac
基 金
sh aring
comp ared
k it
br u
u me
sen ior
contro ll
car s
12 月
commit tee
ol f
team s
re ports
y a
gener ally
traf fic
法 律
制 造
结 果
gir l
manufact ur
ho p
conne ction
libr ary
che ap
一 次
c m
fe br
near ly
jo bs
re tail
advanta ge
jour ney
dav id
turn ed
v ict
n u
rad io
b ound
注 意
holi day
sk y
list ed
in fo
se at
dr a
产 生
so ph
ment al
eng age
电 视
power ful
4 7
ear lier
pie ces
val u
febr uary
in spir
c s
b urn
h us
fl at
at ta
lu x
but ton
帮 助
ship s
see ing
lo an
的 时候
丰 富
camer a
is o
ab ilities
quar ter
j un
li e
find ing
p ac
ce l
de te
vis ual
关 于
stand ards
muse um
ad s
test ing
oc cas
_ _
怎 么
exper ts
scal e
edu le
实 际
交 流
2018 年
共 同
ster n
class ic
积 极
l ap
m ad
fin ished
ev idence
sp ac
.. ..
ex tr
h d
re asons
时 代
con cept
ind ian
l ack
p in
ven ue
ugh t
我 的
allow ed
plan ts
teach ing
不 仅
adv ent
k ers
sh el
ag ency
mil es
下 载
sch edule
iv en
您 的
re pe
bal ance
200 5
rele v
自 动
tempor ary
ber t
log ies
4 00
正 在
enc ies
。 [
只 有
look ed
re c
exp and
cre am
mo de
state ment
cr itical
s pl
dr iving
4 6
shop ping
t ask
streng th
as se
sur v
sell ing
heav y
dol lar
经 过
n ames
治 疗
行 为
d ies
出 版
分 别
得 到
性 的
k new
mem ory
open ing
chang ing
互 联网
form at
b in
do ctor
bro ther
for ts
com ments
w ing
cl oud
br ight
f rench
规 划
专 家
co p
lar ger
val id
h und
suf fer
c atch
po ly
po or
il es
ro id
s now
主 义
ter r
ist ics
fa ith
e k
dri ver
altern ative
为 主
空 间
out door
trans form
s ession
ad ap
pol it
新 闻
0 1
comp li
hund red
y ard
n d
你 的
两 个
h ang
i ke
继 续
incre d
l ord
say ing
r out
re lig
requ ires
mal e
a head
min ute
cy cl
g ent
pr ay
理 论
design s
g ate
ic ing
ex clus
资 金
ma inten
人 才
work ers
超 过
位 于
es ome
平 方
虽 然
profession als
estab lish
农 业
be at
res ident
wh ate
organiz ations
mainten ance
whate ver
ir t
甚 至
经 验
fore ign
gr ant
exp ensive
进 一步
engine ering
part ies
produ ced
ha ven
条 件
i be
h en
beli ev
col ors
tr ial
act ual
op in
share d
del ic
gu ys
4 2
beaut y
bill ion
le ts
规 模
有 的
val ues
ic tion
des k
m ist
-- --
fun ds
音 乐
最 后
civ il
oper ations
install ation
um b
lo s
help ed
we stern
19 5
酒 店
以 来
sk ill
保 险
政 治
ass ign
s port
dr ug
environment al
v s
15 0
人 们
move ment
d augh
随 着
bath room
var i
pa ul
develop ing
cell s
link s
so le
din ing
》 ，
8 00
other wise
这 里
restaur ant
fl av
制 作
win ning
pre par
con vers
mon day
connect ed
if f
l or
hand le
lead ers
announ ced
re str
t un
起 来
w ants
photo graph
z y
7 7
un te
cy cle
process ing
sh ape
nam ed
今 天
bed room
h an
努 力
ke pt
rel ative
参 与
in fr
init i
me l
explo re
ex change
contain s
” ,
buy ing
行 政
ob vious
gu ard
follow ed
化 的
oper ating
vol unte
8 5
ef forts
pan el
ele ments
tal king
有 一
wast e
出 的
compet ition
challeng es
recor ds
him self
aud io
mil itary
al bum
ple as
experi ences
term ine
wi fe
主 任
dedic ated
qu o
tru th
核 心
de termine
sit u
pass ion
11 月
g one
） 、
食 品
mo ved
加 强
造 成
ess ay
us a
z o
washing ton
b our
先 进
表 现
stat us
ga ther
guest s
med ium
200 4
娱 乐
fill ed
受 到
industr ial
select ed
pack age
un ion
ch ief
r ail
organ is
m ur
smo oth
ie t
未 来
坚 持
relev ant
chem ical
取 得
按 照
持 续
adv ance
us ion
emer g
tex as
independ ent
proper ties
s ort
att end
关 注
inter ior
i ar
d ang
sh ar
aren t
t in
re h
优 秀
协 会
for get
应 该
dat ab
c king
不 过
work shop
r d
class es
年 来
商 业
是 否
art ist
保 障
brit ish
fac ilities
更 加
来 自
prep ared
pain ting
10 月
dom ain
fam ous
instit ute
完 全
capac ity
ren tal
许 多
present ed
administ ration
mo dif
电 话
sh if
clo sed
保 持
”、 “
m ine
k n
sp an
y l
接 受
6 8
保 证
ro t
even ing
serv ing
的 高
appro xim
体 验
p ap
de cl
e ight
sp read
3 d
aw esome
execut ive
s light
9 月
b ac
ing red
pop ulation
r s
pl enty
comp reh
fact ors
fore st
职 业
exper im
leader ship
形 式
风 险
原 因
marke ts
服 務
dep ending
mention ed
tr ou
tu be
ev ol
dy nam
temper ature
故 事
visit ors
p p
commun ities
gener ation
ir on
se ed
sil ver
or ing
家 庭
su gar
se ctor
wil liam
书 记
sco re
who se
联 系
ship ping
ic an
teach er
指 导
ines e
techni ques
arr ange
demo cr
优 势
f ans
0 5
m ou
er t
医 疗
pl astic
决 定
co t
报 告
ic o
然 后
pos es
econom y
c in
sound s
范 围
call s
un less
i ency
sm ith
7 8
pract ices
appli ed
exer cise
f anta
a a
fest ival
pro of
law s
le ague
ord ers
an o
se y
teach ers
一 样
思 想
ig er
con su
战 略
实 验
hus band
r are
die t
din ner
r at
在 线
的 事
h t
could n
re ma
cour ses
fe es
培 养
t end
ol der
aud ience
diag no
ch inese
fab ric
ir ing
除 了
flor ida
1 000
pain t
200 3
su s
" ,
不 要
. )
稳 定
pass ed
ch ic
learn ed
vide os
w is
来 说
cor ner
att or
whe el
0 4
dire ction
and roid
you th
j ac
k id
ligh ting
r ide
快 速
num erous
maxim um
it ter
生 态
tic kets
inter view
注 册
foc used
ch er
ens es
re ality
help ful
the me
ch est
c row
at o
comp ar
j ames
卫 生
ta ste
的 小
prep are
区 域
ch ick
lo se
ac cep
生 物
ic on
typ ically
she et
ul ty
的 发展
claim s
vol ume
d ump
左 右
正 式
techno logies
小 时
sch ol
比 赛
现 场
resid ents
pres ents
small er
part ners
qu ant
安 装
cover age
f old
d ial
p has
th urs
fortun ately
以 下
打 造
foot ball
therap y
的 新
al ed
mem or
是 在
免 费
fanta stic
sh ap
men u
refer ence
美 元
is ra
d ar
categ ory
big gest
separ ate
) :
continu ed
k ar
christ ian
ll ing
cult ural
medic ine
re mind
能 源
ex cept
stud io
民 族
not es
minim um
ro se
air port
无 法
喜 欢
ve get
sch ed
加 工
办 公
wa iting
fu el
pd f
ch at
spect ive
dist ance
我们 的
re ci
0 8
absolute ly
te a
wal king
enter pr
教 授
c ities
f ing
6 7
cab ine
s ac
cr is
prof ess
cit iz
afford able
champ ion
min i
成 本
m g
docu ments
c ket
ip hone
促 进
up s
ill ustr
6 9
comm and
d ied
不 得
团 队
n one
test s
4 3
post s
a e
课 程
comb ination
ex pl
dec ide
。 《
charac ters
neg ative
从 事
gir ls
inter nal
const it
mic ha
un its
e co
li p
upd ated
w it
gradu ate
love ly
assist ance
he ight
6 00
amaz on
in ch
ul ts
o logy
r ating
val ley
sour ces
prem ium
r ise
调 查
er ror
intel lig
port ion
t ues
al um
pr oud
en e
neigh bor
ma x
be coming
con struct
m ort
并 且
消费 者
thous ands
先 生
com pe
r and
cre ation
webs ites
vill age
c is
trad ing
幼 儿
afr ica
委员 会
im e
prof ile
provid er
f y
e motion
推 进
fe ar
l ou
移 动
occas ion
完 善
mag az
毕 业
it ude
方 向
s ist
sto res
for um
be comes
an cy
理 念
ak es
4 1
tal ent
mar ks
in stru
art ists
encour age
也 不
process es
fru it
as ks
cal cul
t i
anim als
bur g
购 买
fun ding
w ro
tr an
regist ered
recomm ended
manag ed
cert ific
ru le
全 部
!! !
充 分
只 是
to t
任 务
con fig
clear ly
农 村
ele ment
top ic
install ed
之 前
des cription
g b
联 合
ot es
thurs day
acade mic
ex ception
r ay
t an
报 道
inde x
daugh ter
th row
v ior
大 量
hous ing
sur vey
ct ors
man ual
e ts
sp ending
usu al
de b
dec isions
最 新
r ang
最 终
happ ens
beha vior
vo te
cho col
sol ar
fac ility
ie st
容 易
c ere
previous ly
才 能
graph ic
micha el
wro te
wed nes
li qu
ie l
suit able
mou th
b ought
l unch
open ed
approxim ately
fa ult
show ing
run s
br an
insp ired
e ating
describ ed
gu ess
人 口
组 成
性 能
提 出
k i
咨 询
ur ban
we ak
art icles
polic ies
st ers
过程 中
happen ed
bo at
也 有
fe llow
thre at
一 种
变 化
g olf
事 业
f if
导 致
属 于
con cent
micro soft
al ter
proper ly
距 离
re public
detail ed
上 市
regist er
tr ump
十 分
anim al
资 料
f ro
emerg ency
reci pe
exc ited
discuss ion
perform ed
k ed
目 的
fl ash
ch i
tr ig
loc ations
0 7
sur ger
allow ing
tues day
h r
f light
employ ment
me ant
strateg ies
200 2
im prov
rec ip
the s
n ar
de bt
期 间
pro ceed
cli mate
wi d
will ing
措 施
简 单
pres ence
实 践
s ar
no on
exc iting
chan nel
dom in
div ision
开 放
sam ple
wor ry
推 动
though ts
cr ibe
tw itter
af t
tern al
datab ase
most ly
war rant
建 议
would n
bat tery
flow ers
整 个
mat t
no vel
major ity
bl es
明 显
dr ag
er n
psy cho
其 实
资 产
inj ury
sho wer
to ward
pract ical
pr inc
resour ce
own ed
cert ified
par king
writ er
com plain
o ce
gall ery
ca used
compon ents
s i
leav ing
ag ent
rema ins
sy mp
specific ally
oc cup
正 常
con serv
tre es
研 发
clin ical
enjoy ed
demon str
minist er
k in
tem plate
il s
* *
bl ing
is l
k m
th ick
ger man
al le
竞 争
just ice
relationship s
sa u
wednes day
最 高
particip ants
j am
er r
consu mer
ext ensive
体 的
动 力
z en
世 纪
设 施
执 行
good s
调 整
fil ter
reli able
star ts
valu able
fav our
宣 传
as p
al i
m ex
th om
fac es
t ip
n ine
fre ed
速 度
it ors
机 械
ta g
k ick
ph ones
hous es
当 时
p un
w at
trans l
feed back
spec ies
do gs
comb ined
veh icles
ca ke
app ed
0 3
region al
展 示
but ter
leav es
ingred ients
最 大
break fast
不 可
方 便
阶 段
检 查
chr on
及 时
her o
enh ance
regist ration
0 2
contin ues
b ol
respons ibility
详 细
put ting
be ar
resol ution
appe ars
sal t
ap proved
s can
eng land
z one
automat ically
m ut
event ually
law y
是 一个
it ar
eval u
普 通
co vers
swi m
文 件
famil iar
t ab
accoun ts
li f
gl ad
fin ance
特 点
加 入
administ r
in vent
li ber
ge o
7 月
长 期
消 息
mot iv
5 2
watch ing
位 置
一 下
organ ic
aw ards
electron ic
concer ns
bat tle
) ;
br ings
educ ational
de als
en n
200 1
h es
know s
6 3
sh ut
delic ious
m ile
u x
文 章
运 营
hone st
innov ative
er a
准 备
分 享
关 键
中 华
都 有
communic ations
elect r
cur ren
setting s
gu e
in put
20 20
air s
5 8
the at
6 月
作 者
ed ition
me al
roy al
app s
家 长
的 重要
d ating
f al
基 地
br ief
成 果
de cre
jo int
0 9
chocol ate
surger y
ul ed
2017 年
规 范
eli min
g ins
p ure
leg isl
brand s
ly ing
fix ed
英 国
reco very
bi ke
exam ples
fact or
n om
gu y
field s
sk i
al ex
干 部
compreh ensive
scen e
5 9
rou te
de pos
sav ing
out put
bus y
re vol
acc ident
带 来
h ire
pres er
man ner
prote in
lay er
slight ly
p on
lo go
深 入
import ance
ess ions
conf idence
申 请
针 对
conf ident
欢 迎
h id
程 序
r um
lead s
spe aking
o o
s ad
社 区
dis ci
ye llow
support ed
青 年
know ing
show ed
provid ers
act ing
sou thern
cir cum
6 2
advert ising
aspect s
ed itor
expert ise
ic ians
s me
t ics
remo te
dep th
力 量
chap ter
深 圳
hold s
guaran tee
meas ures
employe e
fun ctions
st al
car bon
replace ment
bow l
ag re
e ch
up load
on a
hold ing
il li
join ed
3 月
真 正
attem pt
8 月
second s
om a
满 足
sh or
来 源
author ity
广 告
患 者
up per
to x
ra ised
vis iting
s che
b c
assess ment
virt ual
ad ults
g age
song s
5 7
不 少
manufact uring
innov ation
ro b
1 20
bru sh
ge or
后 的
lic ense
accom pl
con vention
c oup
any where
c ular
offic er
d ome
j i
gg ed
dist in
nor m
v as
he aring
compet itive
con sequ
cre te
来 越
生 命
we alth
tot ally
cons ci
int ended
9 8
分 钟
本 站
ke l
机 关
此 外
al d
员 工
心 理
cho ices
创 造
gar age
m un
def ense
p it
r ig
con temporary
promo te
ne ck
en able
too th
po d
fo li
平方 米
month ly
享 受
appoint ment
star s
cut ting
并 不
越 来越
数 字
下 的
as king
ur ies
ve ter
food s
文 学
en ing
官 方
rap id
t ables
mil k
sign ed
sty les
al co
dri vers
birth day
科 研
col um
b read
entertain ment
施 工
call ing
d v
发展 的
in fl
东 西
priv acy
力 的
imag ine
freed om
le ather
考 试
t ight
pro pos
inst ance
lic ens
phas e
不同 的
miss ing
当 地
influ ence
re venue
min or
引 起
un g
cl ar
poss ibly
deliver ed
col l
运 行
con ver
d c
b ird
our selves
n ative
严 重
sp here
创 业
的 问题
ex po
opin ion
sho o
histor ical
平 均
for ces
ast ru
scient ific
accur ate
st ret
boo st
广 泛
dete ct
ul a
lt d
ber g
b ing
v ary
upd ates
s ight
restaur ants
commit ted
pay ing
av es
r ated
主 题
觉 得
un fortunately
su res
infr astru
检 测
effic iency
d ia
pur poses
la ugh
种 植
defin ed
有 些
' ,
enc ing
stru gg
mag ic
comp are
crush er
as ia
pe ter
fast er
re tr
bl ed
conven ient
th ro
profess or
mo v
consider ing
pur su
health care
面 的
chick en
inde ed
tre ated
pl ates
ac id
determin ed
con gress
h s
著 名
consum ers
工 具
重 大
build ings
优 质
工 艺
ly n
isra el
che ese
t ut
see k
mar gin
lux ury
ll a
小 学
st un
降 低
fr ank
nor thern
fr ance
resident ial
cat al
link ed
广 东
co oking
因 素
nav ig
pul l
6 1
al ign
b order
the ory
reach ed
下 降
) ，
im proved
tr ick
ap o
ger many
k r
geor ge
remo ved
ol ic
re cru
ru b
fail ure
re put
n as
时 期
gu id
attem p
con text
具 体
b ass
程 度
bring ing
j a
il ed
read ers
to ms
公 共
min ing
re v
con fl
oce an
t ough
re sume
magaz ine
t ons
股 份
h at
dis count
archite ct
lo y
机 制
ad ult
只 要
hor se
am in
出 来
p ump
高 的
com plic
mon t
sit ting
bo ys
ir a
pay ments
sto od
dump ster
状 态
car ol
per mit
introdu ced
ne ls
2 50
主 席
另 外
redu ced
农 户
感 觉
减 少
instruct ions
nut r
儿 童
中 学
m ig
bl ess
举 行
me at
alco hol
ip al
0 6
at ures
s ides
用 的
appear ance
比 如
suppli es
符 合
wall s
d ental
个 月
9 7
re new
host ing
co in
供 应
se x
u ro
is a
5 3
g ers
pro to
qu iet
支 付
can ad
u gs
top ics
cir cu
e e
see king
tru ck
广 大
ca de
自 由
effective ly
train ed
distribut ion
au then
prim e
fl ag
v ation
群 众
玩 家
安 排
po w
阅 读
dis covered
商 务
en ed
疾 病
ex ternal
support ing
特 殊
camp us
s q
infrastru cture
present ation
ound s
appe ared
schol ar
ap os
li ved
su sp
同 学
per man
fact ory
sy mb
return ed
bro ken
proced ure
农 民
中 國
c able
的 情况
set tle
enterpr ise
sign s
】【 。
il it
launch ed
进行 了
5 6
ra ise
reason able
5 月
道 路
fic ient
announ ce
pos itions
她 的
char ges
co ordin
定 的
co al
hundred s
appreci ate
s essions
interest s
hard ware
po ker
多 个
f oun
sto red
ro o
har m
attor ney
监 督
fac ing
一 年
test ed
ate st
ber ry
gold en
di am
rup t
pe ak
风 格
commit ment
le e
ol es
des ire
机 会
integr ated
p up
ic ted
addition ally
不 到
文 明
ad or
at mo
ent re
vir gin
p itch
来 看
5 g
dou bt
and re
after noon
企 業
pap ers
act ed
paren t
for ced
feel s
exclus ive
de ck
尤 其
copy right
品 质
4 月
incred ible
ens ions
form ed
山 东
合 理
f are
s cript
s izes
ind ing
fit ness
improve ment
hab it
list s
hol der
purch ased
gre atest
大 型
mo on
推 荐
ag ric
r ank
ne got
ar ms
in ations
four th
share s
program me
remo val
5 1
網 站
circum st
成 长
数 量
out s
更 新
authen tic
多 的
mort gage
ist an
重要 的
perfect ly
e leg
neighbor hood
过 去
h ip
qual ified
发 挥
app arent
7 2
aware ness
e g
gr ab
t es
au th
lo ans
fe ction
b ak
如 此
ban ks
h ou
整 体
mach ines
最 大的
sco tt
or ient
告 诉
flow er
k u
lands cape
通 知
ce o
chic ago
app ing
spac es
e per
re ar
th read
con crete
cl ud
贸 易
bon us
gro wn
ar my
生 的
accom mod
ele ction
p ink
做 好
as sets
压 力
ack s
ident ified
g ment
统 一
sou l
significant ly
sign al
invest ors
投 入
photo graphy
per spective
jud ge
成 了
最 近
细 胞
bo ards
pred ict
199 9
ans wers
st ated
5 4
seem ed
agric ult
k ore
prom ise
world wide
affect ed
pe p
的 话
m t
sho es
b id
tr ic
真 的
archite cture
issu ed
此 次
g on
tic ket
pr a
h p
feat uring
official s
candid ates
real ize
i to
ast er
hold ers
人 士
集 中
1 月
ca uses
miss ed
tell ing
r ick
o red
oper ate
proced ures
kind s
cho sen
electr ical
证 券
o ak
regular ly
surround ing
str ain
when ever
ex cess
promo tion
symp toms
char ged
小 说
意 见
多 种
意 义
2 月
ro s
从 而
语 言
t ap
at a
am i
design er
指 出
we t
绿 色
另 一
des er
广 州
cho o
行 动
t asks
pattern s
博 士
适 合
wid th
ge ar
ul ate
liqu id
disci pl
or ange
成 绩
rand om
营 销
spirit ual
i us
发 表
l ind
particip ate
学 术
mess ages
ang le
e c
1 st
gen e
phil o
pro posed
改 变
ob lig
afr ican
gr at
or ation
mov ies
首 先
ch a
let ters
res ort
be er
plan ned
测 试
d ent
transport ation
convers ation
pol l
ar io
以 后
ma ker
mat ters
dollar s
partner ship
的 工作
董 事
japan ese
ma gn
公 开
wh om
person ally
ify ing
年 代
asse mb
连 续
ag ents
技 能
cl es
emp has
类 型
care fully
inspir ation
那 些
apart ment
fo x
te ls
r ough
as ide
manag ing
r aw
om b
manufactur er
每 天
机 器
or al
然 而
植 物
accep ted
ma kers
net works
人 类
in ing
彩 票
frequ ently
hy dro
sup ports
ul ations
big ger
r ice
ye ster
pre ne
in sul
af fil
资 本
success fully
事 件
bo oking
play s
out standing
gr ass
sever e
官 网
自 身
先 后
remain ing
土 地
推 广
auto m
plan et
protect ed
说 明
am s
advent ure
ordin ary
tr i
dec ades
女 性
ath let
落 实
commer ce
本 书
an ci
st im
cre w
access ible
ag encies
and er
d ivid
regul ations
minist ry
su d
fe male
mar ried
gre g
產 品
con firm
’ .
ul ous
就 会
rece iving
合 同
sh ire
pos ite
typ ical
con fir
e lig
ch am
norm ally
y ing
adv oc
ht ml
found ed
pi pe
hon or
c n
tran sp
设 置
ad mit
推 出
ib ilities
ident ity
the sis
cal end
ved io
物 流
equ al
fall s
de le
dr iven
会 员
意 识
pro p
arr ived
su red
n is
再 次
en ab
feat ured
brow ser
ext ended
ha z
relig ious
称 为
her it
choo sing
t ub
the tic
research ers
dut y
f as
公司 的
trans ition
sustain able
污 染
sp in
d ust
参 考
russ ian
p ad
av en
recor ded
express ion
b one
避 免
com pr
sist er
str ing
dome stic
sh ed
you tube
print ed
ur ally
de gre
fe ll
inter face
xt ure
consist ent
二 十
re tain
su ite
ap prov
学 会
ers on
entre prene
是一 种
acade my
yester day
car ri
member ship
b is
be long
bag s
m ount
vic tim
return s
o le
wa ve
环 保
emotion al
car ried
真 实
histor ic
tw ice
找 到
考 虑
mus ical
vi br
sau ce
tee th
办 法
di vers
certific ate
cut e
monitor ing
strateg ic
ho ly
gif ts
stun ning
an x
in ary
者 的
search ing
ain t
委 会
pre gn
corpor ation
各 类
确 保
i vers
sav ings
知 名
动 物
win ner
v p
监 管
pow der
维 护
str ip
fran cis
台 湾
vict or
a er
v ice
nutr ition
austral ian
效 率
life style
beli ef
dynam ic
cap able
flex ible
turn s
改 善
相 信
fish ing
b by
b ang
w y
有 人
ar ab
mon y
wire less
perform ing
regard less
quo te
r ance
即 可
every day
you n
gor ge
and a
ul ated
这样 的
bre ath
be gins
v ital
明 确
党 员
z ip
ro bert
sp ons
degre es
inform ed
x x
instit ution
const antly
wit ness
meeting s
comp ens
身 体
ic ian
j im
s ized
origin ally
dr ain
anci ent
agre ed
该 村
s lot
去 年
coun sel
c ers
qu ir
av a
de fault
thor ough
se o
bo dies
co des
situ ations
flo od
协 议
fun dam
内 的
op s
d d
suf ficient
cook ies
玻 璃
dest ination
采 取
invol ve
theat re
ma th
yo ga
每 个
独 立
發 展
最 佳
imm ig
ca th
英 语
m ere
浙 江
que en
fail ed
v end
tele vision
appoint ed
出 口
t um
claim ed
implement ation
de plo
bas ket
expect ations
mix ed
r io
dr ugs
spe ech
ho le
dr am
tren d
r if
htt ps
确 定
199 8
lo ves
ul l
b un
impress ive
in f
l amp
concer ned
we ap
gr an
guaran te
benef ic
ret ire
iso de
r it
及 其
revol ution
o ly
li ft
industr ies
ho tels
ben ch
zer o
special ist
mass ive
ital ian
relative ly
ag er
com ed
统 计
br a
ar i
ep isode
contr ast
天 津
week ly
理 解
any way
ta st
instit utions
空 气
engage ment
o w
ill a
pl u
车 辆
fac ilit
al leg
大 会
ultim ate
canad ian
read er
涉 及
tre as
vis ible
organ ized
它 的
serv es
住 房
li a
distin ct
一 個
not ed
增 强
intellig ence
circumst ances
er ies
object s
ta ught
d ates
stand s
承 担
subst ant
ear n
tren ds
vac ation
進 行
philo soph
mo ist
comp at
sp a
equip ped
} .
speak er
ann a
n t
良 好的
concer n
经 理
russ ia
assemb ly
本 次
crim e
consci ous
ph en
ac le
全 村
ser t
代 理
d or
function al
rout ine
升 级
cr az
ch art
ning s
sched uled
par is
度 的
king dom
di verse
attr ibut
trou ble
str i
多 年
图 片
形 象
ic y
pr ison
ach e
d ers
in i
conduct ed
resist ance
retr ie
分 为
circu it
fac ulty
都 会
9 6
e ld
draw ing
进 口
sli p
面 对
ag ram
techni que
智 慧
ear ned
us age
challeng ing
beha vi
只 能
manufactur ers
al p
port foli
创 作
li ver
ris ks
》 （
she ll
stor m
guid ance
et te
o ven
d un
celebr ate
th ir
keep s
f its
as y
沒 有
compon ent
lap top
fr ag
sh irt
电 脑
introdu ction
v ast
sud den
吸 引
t ank
利 益
so il
计算 机
miss ions
cre ates
等 等
无 论
199 0
sor ry
near by
access ories
assist ant
lou is
dest roy
n ail
严 格
ext ension
地 产
微 信
recogn ized
chest er
在 中国
crim inal
tur ning
相 对
t all
clo ser
re ward
mor row
ultim ately
举 办
pick ed
shif t
年 轻
搜 索
值 得
report ing
bre aking
graph ics
re fr
ho ok
se cut
thom as
t ile
const ant
prin ting
ca ught
mar ri
atta ched
gr ace
) (
gu itar
spl it
ar a
cor n
in ner
our s
ack now
它 们
ab sor
main ly
un like
jo se
l um
citiz ens
掌 握
发 行
革 命
tour nam
mat o
en a
论 文
writ ers
del ay
各 地
surpr ise
up coming
同 比
bot tle
cris is
fact ion
controll ed
ol a
tin y
super ior
内 部
第 四
collabor ation
gener ate
obvious ly
bas ically
us b
sh er
ab s
7 6
cover ing
pe ts
not iced
， 《
shop s
expo sure
symb ol
重 庆
less ons
bu g
百 度
improv ing
en force
clo ck
物 质
we aring
em br
mer ch
mom ents
luck y
高 速
sol ve
而 是
listen ing
in um
三 个
m ous
my ster
wor se
ro ot
config ur
b ible
mex ico
2 nd
经 历
fil ms
网 上
8 6
pr ize
身 份
lad y
clo thes
close ly
b ond
cert ification
k g
pass eng
j um
高 级
exp ans
v ul
这 么
重 新
se min
serious ly
coun ts
hosp it
m old
oly mp
ens ity
americ ans
no ise
dang erous
il st
chr is
co ck
公 路
p ace
pro s
子 的
记 录
运 输
entire ly
hy per
t am
通 常
investig ation
form al
fac ts
gorge ous
2016 年
一 位
sup posed
7 00
reser ve
多 少
ex ceed
wh ilst
mo du
化 学
校 园
for th
199 7
贡 献
hid den
la you
s lo
7 9
n ations
he ating
k il
劳 动
span ish
st amp
想 要
incre ases
favour ite
他们 的
w an
curren cy
collect ed
plac ing
gr av
power ed
f s
ish ing
la bel
az z
欧 洲
] .
prin ci
江 苏
guide lines
ter ior
pre cise
大 利
compli ance
经 常
结 束
adap t
f ied
bir ds
in corpor
ob serv
atmo sphere
in fect
to morrow
ch ip
主 持
stret ch
办 理
居 民
sub sequ
inst agram
met ro
reli ef
评 价
人 物
modu le
got ten
… .
in ches
原 则
费 用
develo pers
stop ped
认 识
br illi
prepar ation
例 如
bro ok
king s
d ad
sy m
sm ile
ur a
off ices
ste am
jer sey
7 4
tr im
bo ot
capt ure
文 字
avail ability
2015 年
calend ar
1 10
sho re
r ust
下 来
pr icing
auth ors
box es
就 可以
ter ror
cr ash
金 属
o ta
m n
ast s
poss ibility
% .
包 装
当 然
的 产品
ill ed
offic ers
st s
c ad
sur ing
ic king
上 述
cry p
de press
fair ly
ur l
設 計
gam ing
ke ys
al li
大 多
fill ing
mar ine
st ir
candid ate
k im
e z
方面 的
cabine t
act or
內 容
趋 势
un able
孩子 们
as sum
eval uation
east ern
manag ers
8 9
appe al
p g
i ers
温 度
比 例
表 面
pl ug
如 今
根 本
deplo y
kill ed
m ol
优 化
毫 米
每 年
样 的
ph arm
bo ss
prov en
defin ition
frame work
sche me
sho ts
set t
河 南
thus i
he aling
为 什么
en thusi
categ ories
德 国
dr um
substant ial
car pet
连 接
治 理
cru cial
ste ad
ze al
动 车
comp ass
有 了
ple ased
obtain ed
》 。
redu ction
授 权
ind u
ad op
con clus
par ame
基 于
ce iling
人 工
am oun
b ach
st ro
ital y
dis co
配 合
princi ples
roll ing
完 整
ir an
head s
人 均
tra ve
天 然
the less
四 川
def end
happen ing
fir ms
clo thing
训 练
vers ions
struct ures
ed it
exp enses
mark ed
n ie
bl ind
ig an
automat ic
it ory
mi ke
cli p
in king
sco t
c art
年 度
装 修
is ation
更 是
j ump
vin tage
也 可以
be th
attr active
g ap
制 定
财 政
gre y
p ix
s om
m ich
州 市
explain ed
突 破
perman ent
fol ks
on going
v ine
一 切
股 票
hand ling
成 员
有 所
迅 速
je t
in spect
致 力
3 年
gre w
trans action
gen u
prov in
探 索
experim ent
foun der
本 身
sup plement
家 的
e gg
produ cing
diag ram
f c
? "
資 料
discuss ed
ne uro
公 园
st able
t wi
arr ive
nat urally
fil ed
tell s
k ne
ren der
维 修
l en
marri age
bo ston
achie ved
c ue
platform s
im possible
vie t
tut or
ph y
deal ing
stain less
jo e
shoo ting
is ol
ange les
arr ay
recip es
reve aled
iven ess
学 科
s ion
ar rest
pass word
portfoli o
resul ting
treat ments
o do
en em
通 信
hy dr
cr ack
fig ures
antic ip
资 格
lin ed
enter ed
pass ing
o v
bl end
satis faction
integr ation
信 用
一 体
一 家
现 实
order ed
p es
genu ine
mus cle
工作 的
追 求
m d
9 00
je wel
rich ard
党 的
色 的
j ef
近 日
en counter
》 《
ap t
contro ls
南 京
estim ated
att ended
里 的
cent ers
join ing
了 一个
plan e
atta ch
量 的
ial s
公 布
herit age
居 住
licens ed
approv al
secret ary
t one
gener ated
sell er
des cribe
buy ers
o bs
new sp
differ ences
lo sing
mon d
苹 果
ha w
des ired
applic able
地 址
s d
immed iate
時 間
ade qu
rel ations
试 验
h ate
总 收入
更多 的
she ets
suggest ed
nu clear
查 看
vis ited
rom an
craz y
contribut e
bar s
deal er
me als
199 6
is lam
it a
se ats
日 常
fic tion
cast le
mart in
应 当
su spect
tax es
pat ch
recogn ize
pr inter
pro spect
inst ant
2010 年
ut ter
li ked
多 次
sco pe
program ming
j uni
le x
eleg ant
就 业
的 基础
的 地方
s car
con test
swim ming
厘 米
技 術
宣 布
ins ight
compar ison
反 应
al o
扩 大
li ability
认 证
re fresh
g d
refer red
initi ative
warrant y
sp ark
connect ions
m one
法 国
可 是
mill ions
second ary
exhib ition
自 主
ire land
s ick
color ing
chair s
author ities
it is
相 当
k at
set up
redu cing
t ack
re cycl
幼儿 园
s r
s anta
prior ity
comb ine
lo d
hope fully
sens itive
prem ier
7 3
浏 览
road s
reput ation
inc ident
% ；
9 2
dv d
担 任
运 用
处 于
crow d
an cing
lo ving
recor ding
submit ted
re presents
指 标
do s
唯 一
add s
purch asing
营 养
y ards
图 书
办公 室
tr acking
s ink
m aps
le af
am en
id ents
suppli ers
sam ples
ligh ted
polit ics
br on
ou red
示 范
las er
h oney
en ables
产品 的
an ne
体 现
down town
c ure
少 年
重 视
现 象
访 问
排 名
pac ific
覆 盖
配 套
wood en
双 方
cep ts
dra wn
党 委
list ing
h ack
u ck
prim arily
repe at
be lt
时 尚
inv ited
clo sure
！ ”
y ield
bran ch
h ills
的 方式
sun g
depend s
inter active
利 润
fight ing
confl ict
有 着
inj uries
航 空
pl ed
父 母
sn ap
ge l
医 学
floor ing
临 床
cot ton
dream s
to wer
wide ly
sh ado
bu sh
desk top
am ed
chan nels
trig ger
do ctors
2009 年
ce ler
percent age
bes ides
virgin ia
st an
se ctions
ob ama
gl ing
2008 年
美 术
p iz
c p
n arr
伙 伴
ap i
x y
sav ed
blo cks
recommend ations
sh r
bre ast
recogn ition
1 年
fr ustr
diam ond
stat istics
問 題
199 5
2006 年
sho ck
liter ature
困 难
感 受
固 定
实 行
all er
ex port
逐 渐
现 有
ed s
person s
comp ress
rac ing
这 次
ge org
j ar
美 的
recru it
re placed
fun ny
viol ence
b low
mo le
mi xture
必 要
confir med
al ty
inter pret
stree ts
reser ved
n ick
po cket
19 80
c b
独 特
fore ver
s ending
crit er
cli mb
request s
li kes
slow ly
fl our
depos it
attack s
class room
等 奖
8 7
之间 的
la be
flav or
后 来
up grade
sho ot
18 0
fing er
du al
cl a
int ention
up grad
3 rd
至 今
st ake
ne ither
continu ing
amoun ts
direct ed
中 共
elig ible
令 人
real ized
accoun ting
phil ip
罗 斯
fal se
加 快
along side
依 法
dim ension
高 度
ser vers
cir cle
他 們
prefer red
state ments
b are
communic ate
ma them
s af
tw enty
队 伍
pack ages
心 的
海 外
p our
award ed
re nov
版 本
前 的
状 况
肯 定
到 的
cap abilities
m um
surpr ising
con cepts
zeal and
comm only
dia bet
human s
pr ide
包 含
o ct
教 材
pat io
some where
性 和
w ich
网 友
ist ry
法 院
pep per
ne st
lim its
consider ation
h ence
半 年
tr ay
ch ef
holi days
minim al
? ”
ac celer
super vis
也 会
认 真
bo b
提供 了
mat ic
accompl ish
十 二
r ics
t ill
分 类
mountain s
论 坛
en suring
背 景
represent ative
as set
view ed
下 午
概 念
b il
8 2
track s
pleas ure
spr ay
的 主要
系 統
bl an
ict ions
cro wn
bo tt
3 60
sh ine
hor iz
于 是
ill ness
进 步
he ll
不 足
mo od
al a
nur sing
皮 肤
公 安
por ter
apply ing
vict ory
mem ories
l ens
ve t
de cade
8 4
cre at
err ors
wor st
事 故
复 杂
th y
carol ina
youn ger
je ction
house hold
constit ution
wo w
fly ing
suc ceed
volunte ers
ba i
8 3
配 置
自 行
dis put
lawy er
correct ly
c ater
在 此
职 工
北京 市
同 意
ph r
几 乎
ast ro
sens or
new ly
2014 年
__ __
dis eas
ext ent
c ine
ne ut
reg ions
pot ato
increasing ly
bre a
nar row
突 出
log ic
相 比
k ins
ang er
vul ner
突 然
post ing
he y
host ed
concer ning
to ile
cho se
gr ain
surpr ised
期 的
ne ys
less on
con vert
ig no
事 情
contain er
dis ney
来 到
gen et
实 力
一 点
z ing
ho ping
湖 南
企业 的
之 外
装 饰
节 目
r ural
br az
pen n
advanta ges
证 明
gr y
scr atch
ii i
scient ists
丰富 的
’ ,
worth y
pack ed
buy er
port able
pre c
仍 然
display ed
gen es
整 合
aw a
i ated
pan els
经 典
bac ter
专业 的
传 播
太 阳
足 球
the ast
re ly
成 都
le an
in struction
ll ed
相 应
ru sh
enjoy ing
启 动
retire ment
照 片
将 在
z ed
eng aged
iz er
p ine
proto col
volunte er
首 次
ut ility
univers al
为 您
broad cast
点 击
mir ror
召 开
你 们
反 映
高 校
wh el
而 言
ste ve
新 能源
lo op
36 5
layou t
invol ves
gard ens
exer c
conven ience
几 个
chan ces
ro les
out comes
par ks
cons ists
leg s
direct ory
加 盟
限 制
2007 年
cur ric
rub ber
共 享
be an
br ick
co at
bur y
？ ”
都 在
cry stal
exception al
matt ress
vo ted
che cking
7 1
word press
co s
gr ay
fi ber
fac ed
sof a
o gue
s ir
employ ed
is lands
r ib
direct ors
p ak
ok ay
cru ise
crit ic
evol ution
brilli ant
ag ues
分 布
不 知道
initial ly
respon ding
maintain ing
f ont
地 位
organis ation
9 4
in n
ca using
st ones
sci ences
speak ers
id ing
en roll
9 1
充 满
intel lect
b n
clo sing
mag net
life time
pain ted
oh io
ent it
mo ves
suffer ing
tem ple
object ive
consum ption
cu sh
199 2
as ian
match es
dr aft
trans actions
emp ty
ta gged
um es
shap ed
ro d
fore cast
part ial
挑 战
ab use
contain ed
diseas es
始 终
t ape
pleas ant
快 乐
9 3
韩 国
skill ed
的 主
p ian
shar p
log ist
创 建
gent le
致力 于
妈 妈
eg gs
mich igan
渠 道
2012 年
incred ibly
propos al
所 在
素 质
ion e
colum n
s ate
199 4
frequ ency
feel ings
potential ly
dr inking
lan e
投资 者
le ver
suggest ions
publish ing
electric ity
共 和
require ment
don ald
bat ter
gi ant
sh ir
b old
str ange
t ie
r ip
角 度
人民 币
负责 人
n ab
believ ed
air craft
expans ion
pray er
travel ing
sur ve
stay ing
! "
bar ri
tournam ent
幸 福
y u
的 一个
成 熟
流 程
ban king
其 它
pos ing
le mon
cut s
guarante ed
contain ing
曾 经
财 务
ent rance
o z
por ters
r ings
= "
j ones
fol k
apparent ly
jack son
am ing
plo t
ul um
的 好
some what
last ing
de but
cl u
prov ision
je wish
ju ice
am ic
care ful
head ed
1 日
trans mission
摄 影
veget ables
tem plates
complic ated
给 予
suggest s
近 平
融 资
ro l
employ er
w ag
re mark
qu otes
we igh
战 争
poss ess
o logical
repair s
vit amin
贷 款
approach es
brow se
亚 洲
准 确
wh is
mathem at
form ation
加 上
sc ul
使 得
sh i
contract ors
tr ips
spe ction
季 度
ul ing
是 由
相 同
影 片
個 人
alp ha
2011 年
w ick
因 為
further more
d j
众 多
直 播
consult ation
n c
3 000
的 研究
str ict
d ess
john son
strugg le
死 亡
anx iety
princ ipal
做 到
蛋 白
equ ival
heav en
spo ke
a qu
人 数
every where
spec ified
wr ap
particip ation
her self
st ack
的 时间
go v
it er
liter ally
res idence
stu ck
necess arily
铁 路
william s
re in
高 等
iss ions
下 面
to mato
rat io
t win
表 演
d na
public ation
ris ing
compens ation
c af
强 调
dish es
roo ts
ap ore
p as
leg end
farm ers
ex posed
n ights
协 调
comput ers
i que
be half
往 往
t act
行 的
三 年
def ine
r ab
食 物
高 效
专 门
colour s
定 位
ele v
ific ations
ann ivers
sign ature
融 合
预 计
person ality
恢 复
tur key
re med
sp on
角 色
tour s
满 意
pe ar
j ur
更 好
color ado
chair man
中 小
ll c
中 文
design ers
' .
违 法
disco very
h ay
col on
流 量
om y
flex ibility
出 生
s cor
chr ome
criter ia
satis fied
tele phone
市场 的
手 段
适 应
sing apore
ex plan
厂 家
ab str
follow s
arr ang
的 心
表 达
放 在
sco red
一 名
民 主
tal ks
大 小
blo om
hu b
ba king
over whel
d re
ves sel
m w
理 想
总 体
正 确
d il
so lo
不 再
改 造
walk ed
对 象
t x
reg ulation
g ary
t issue
批 准
犯 罪
lin ux
ob served
哪 些
相 關
u a
ill ing
per mission
inter n
展 开
li me
represent ed
asse m
develo per
打 开
a ust
m ates
top s
indic ate
compat ible
e gy
re action
自 我
subject s
al ive
se as
acqu is
po wers
coup on
am end
分 子
cy ber
公 告
wat ers
立 即
se al
上 了
fran ch
ch or
st ad
特 征
ar ian
st ations
ren ce
champion ship
hel lo
规 则
河 北
craf ts
y an
小 组
should n
argu ment
% ,
configur ation
> >
g ender
convention al
refr iger
同 样
最 好
读 者
p ig
活 動
il i
in spection
se ct
fr aud
sy l
) 。
hur t
prepar ing
out come
check ed
物 理
b ills
以 为
form ula
prom pt
function ality
deb ate
your s
loc ate
e ll
垃 圾
improve ments
sco res
各 项
品 种
char les
d ash
le ak
布 局
benefic ial
us ive
编 辑
express ed
in ated
一 天
whe els
ific ial
es cape
sp ain
less ly
v c
celebr ation
v r
俄 罗斯
associ ate
人 在
drink s
war ning
invest ments
drop ped
in tim
request ed
se m
respons es
中 医
cas ual
represent atives
ven ues
wa ke
l oun
wild life
ha ust
accommod ation
k an
mee ts
relig ion
a es
philosoph y
那 个
of t
suppli er
cop per
braz il
j r
转 载
pat ent
al gor
ex haust
各 个
lo west
visit or
t ay
n it
fundam ental
葡 萄
in door
rid ing
sum mary
c ia
之 中
习 惯
元 素
pe l
主 动
引 导
op posite
美 丽
seed s
st ages
carry ing
♀♀ ♀♀
believ es
vert ical
当 前
accur acy
par ag
par alle
maintain ed
inter action
francis co
encour aged
au x
感 到
cap tain
的 影响
algor ith
depress ion
村 民
父 亲
让 人
f ib
fine st
address es
cath olic
3 50
相 互
ox y
组 合
u el
dur able
man n
ext end
glo be
社会 主义
equ ity
more over
par liam
find ings
i ors
周 边
大 部分
k h
第一 次
版 权
m ers
案 件
就 能
fit ting
ye ah
! )
elect ro
特别 是
的 服务
装 备
continu ous
mechan ical
photograph s
观 众
br ad
eng ines
mot ions
juni or
造 型
的一 种
在 于
fo o
cere mony
u i
策 略
instru ment
legisl ation
人 生
具 备
en na
尽 管
satis fy
subst it
annivers ary
dan iel
地 图
清 楚
呈 现
gy m
divers ity
dam aged
egy pt
enter ing
concer t
un a
foc using
sate ll
vent ure
demand s
j ay
bo il
观 察
respect ively
co lo
enforce ment
即 使
exist ence
character istics
grap her
dur ation
4 th
m ouse
un k
生 长
if ies
ev il
pr ints
cryp to
hop es
se es
un expected
m ud
sh a
收 益
spo ts
尤其 是
sk ip
grant ed
ru g
invent ory
en de
email s
creat ivity
un known
自 治
ur ning
装 置
兴 趣
person nel
hy po
ip ad
de em
t il
brother s
fif th
大 力
head ing
一定 要
天 下
tr ib
gr ate
g ul
ground s
以 前
prin ce
coach ing
if e
cor d
parliam ent
author ized
under stood
成 就
的 不
第 十
langu ages
as sume
lo ose
v oc
会 计
cre ek
aff airs
great ly
学 位
estim ate
di y
pack aging
hang ing
可 靠
pa ired
优 惠
op ens
fo ster
deliver ing
jef f
硕 士
vo cal
驾 驶
democr atic
技 巧
sh ield
成 的
expl oring
piz za
direct ions
workshop s
su pre
at l
h ors
简 称
mon o
br is
f ant
re hab
) 、
study ing
的 生活
ac es
sme ll
clud ed
im ent
large ly
8 1
flo ors
国 务
b ure
离 开
ange l
essential ly
ter ed
analy tics
沟 通
prof its
mean while
regul atory
习 近平
市 場
手 术
d um
chron ic
cons ent
gal ax
c ats
pod cast
dr ama
eld er
提 示
art ificial
都 不
in tr
fun ded
prevent ion
s lots
cl icking
pul led
澳 门
an th
mass age
ex cel
implement ed
h ong
神 经
reach ing
u ge
fall ing
近 年来
ph ar
sam sung
化 工
亿 美元
them es
） （
strong er
har vest
invol ving
respect ive
d iction
n an
合 法
str ike
accor dance
k ay
k ir
jewel ry
1 30
ho o
很 大
截 至
excell ence
设 立
数 的
想 到
introdu ce
re p
v y
pres sing
ra ising
eng aging
养 殖
是 什么
接 触
environ ments
ag ra
依 据
memor ial
e y
net working
la kes
ad am
可能 会
occur s
pil ot
的 前
georg ia
耕 地
88 8
mur der
' :
g ian
逐 步
back up
确 认
h iring
i ver
document ation
lat in
fas cin
wi ring
s ie
special ists
一 路
se am
战 斗
contract or
球 队
trans mit
oper ated
uni verse
gover nor
the ater
rece ption
consul ting
sty lish
curric ulum
wor ship
construct ed
国 外
良 好
bed s
contribut ion
附 近
机 场
预 测
is er
int ense
finan cing
家 具
全 体
lands cap
前 往
lay ers
r ia
sw ing
aven ue
机 动车
or th
invest ing
小 编
conserv ation
i at
作 业
s oup
武 汉
every body
high light
active ly
focus es
g gling
ag gress
hol ly
employ ers
glass es
assign ed
gr id
信 号
se mi
mot ive
c f
exam ination
pro b
r ants
研究 所
t ired
的事 情
领 先
int ent
ste in
arr ival
engine ers
clin ic
轻 松
la id
nation ally
k ong
理 事
occur red
comple tion
cook ie
clu bs
wall paper
y am
ian a
模 型
ins ights
re plic
gain ed
vis its
bed rooms
是 不
citiz en
购 物
in y
的 同时
or a
同 志
贯 彻
contr acts
hol es
纪 念
讨 论
spons or
k ent
色 彩
集 体
im per
product ive
gener ic
损 失
design ing
intellect ual
g az
sy d
收 集
注 重
de ar
b its
p ip
将 会
re y
tour ism
explain s
强 化
smo ke
hun ting
con version
view ing
phen om
」 ，
采 购
上 午
防 止
resist ant
许 可
修 改
demon strate
ex terior
equival ent
h its
p ier
g ig
la wn
在 这
sure ly
机 的
f ers
char ity
text ure
强 的
台 灣
comp act
ul tra
顾 客
repe ated
l oud
su its
brit ain
al t
ret urning
re fund
re ply
hear ts
房 地产
上 升
女 人
ve gas
smart phone
sur ge
研究 生
situ ated
re no
pre ced
quar ters
d b
s aint
十 年
host s
con ce
医 生
afr aid
child hood
find s
re ject
ans as
supre me
ta gs
?? ??
r ack
do t
alum inum
f is
val ent
loc king
trust ed
vers at
fab ulous
ie ties
am ent
cur tain
cham ber
bre ed
di pl
t at
adequ ate
云 南
链 接
ac ular
bro ker
国内 外
添 加
福 建
de light
equ ally
母 亲
198 9
emer ging
sq l
owner ship
fe t
att ending
util ize
o live
a us
英 雄
是 中国
ing u
依 然
load ed
connect ing
administr ative
做 出
aim s
c ies
办 学
标 志
k al
streng then
16 0
f lip
de eper
sh am
ind er
act ors
od d
c en
sh ade
model ing
collect ions
do se
hard er
本 网
thous and
m all
r ome
旅 行
camer as
jose ph
high way
scen es
d ip
spr ings
tor onto
sw ed
talk ed
evalu ate
l ers
便 利
wor n
是一 家
專 業
product ivity
kore a
這 個
评 估
strong ly
围 绕
has n
enh anced
森 林
氧 化
st airs
co oper
大 陆
st ability
object ives
condition ing
常 见
em bar
bu b
diabet es
w ins
bul l
b ust
se asons
院 校
entreprene ur
p ounds
安 徽
的 方法
univers ities
review ed
所 谓
con vin
mr s
j azz
案 例
终 于
co gn
互 动
table t
se gment
遇 到
be ver
promo ting
com position
ak a
ton ight
rel ating
aud i
故 障
mp 3
冠 军
cal m
rup tion
temper atures
l av
labor atory
soph istic
查 询
wh it
bor row
广 场
s que
意 味
本 科
的 情
零 售
high lights
实验 室
事 实
tit les
湖 北
po e
rang ing
国务 院
f lights
正 是
inv ite
出版 社
ou l
里 面
bal anced
er ic
syd ney
随 后
sudden ly
颜 色
一 致
休 闲
horiz on
work er
particip ating
lawy ers
國 家
19 70
天 空
还 要
acqu ired
白 色
ed ia
display s
f igh
会 上
ke e
b unch
bl u
medic ation
解 释
ir ish
感 染
!! !!
至 少
engine er
modif ied
来 了
两 年
av ing
wood s
to ys
stud ied
面 临
f li
对 外
ar iz
entit led
证 书
n ik
twi st
东 方
主要 是
思 考
hand y
retrie ved
印 度
band s
end a
settle ment
t ent
支 撑
j ava
contribut ions
remain ed
tr ash
rapid ly
名 称
pract ition
h l
拍 摄
lab our
wonder ing
il legal
finish ing
il a
instru ments
work place
wi fi
d ale
dam ages
bu f
bour ne
it ate
end ers
important ly
re form
gr inding
英 文
已 經
精 彩
v ous
变 得
环 节
fe b
period s
d ir
ed ited
o y
im plic
tox ic
fr on
动 作
资 讯
div or
军 事
fo am
organis ations
be e
杂 志
一 条
d edu
刺 激
m end
sum mit
indic ated
时 的
万 人
distribut ed
r t
leg it
收 到
vis a
bit coin
有 利
有 一个
课 题
尺 寸
moun ted
basket ball
g ut
ic ts
指 数
ing ly
conclus ion
共 产
be ans
人民 政府
place ment
can cell
j ord
室 内
initi atives
区 的
over view
意 思
performan ces
wn ed
共 有
寻 找
输 入
游 客
with draw
elect ed
r hy
mun ic
any more
今 日
也 可
son s
andre w
ball s
） ；
en sures
reve al
石 油
回 到
h ide
a del
cabine ts
j aw
over night
among st
展 现
b und
共和 国
g t
pr iced
imm une
cont ents
col leg
ph p
transp arent
似 乎
colle agues
u c
杭 州
网 址
cook ed
negot i
want ing
bur ning
的 作用
vin yl
consequ ences
where as
的 美
watch ed
博 物
电 池
d ough
总 结
dis cre
mor al
cool ing
ha wa
定 制
并 在
c av
cour ts
exam ine
cript ions
match ing
pal m
j on
纤 维
儿 子
专 项
lat ter
behavi our
全 市
到 底
m ph
sal ad
drag on
gree k
近 期
d al
process ed
住 宅
ig en
enab led
棋 牌
声 音
ad min
5 000
乡 村
mar i
建 成
re vis
nut ri
n ap
sen ate
trail er
mat ure
两 种
advert ise
shel f
一 代
权 益
解决 方案
停 车
iv als
不 知
长 的
priv ile
dim ensions
to ler
win ners
部 署
cl ay
adop ted
wh oles
scholar ship
controll er
10 1
att itude
pro hib
---- ----
平 衡
g ps
药 物
infl am
on ed
oil s
s ap
司 法
是 指
break s
他 在
身 上
态 度
spect acular
weap ons
并 没有
的 技术
ex ists
日 前
g ical
agricult ure
测 量
my th
happ iness
de fect
in ting
subs id
工 资
ma sters
extr act
clo th
可以 在
ro ast
scul pt
男 人
iz z
meas ured
就 在
整 理
ino is
pak istan
pu zz
v acc
的 信息
oper ational
transl ation
都 能
wis dom
i j
deep ly
e motions
名 为
江 西
等 方面
quant ity
第 五
面 向
in fection
comple ment
grate ful
ad mission
dr ives
prom ised
e ag
去 了
nut s
ed iting
qu it
por tra
me ter
gu ides
四 个
passion ate
depend ent
in cent
货 币
load s
bur gh
feed ing
ca kes
加 大
电 力
vir us
看 看
comb at
econom ics
高 中
par ad
u v
no se
consist ently
大 众
de cent
型 的
观 点
ire ct
bre ach
target ed
impress ion
宝 宝
tim el
acqu ire
id ers
cop ies
n iger
co operation
ab road
st om
保 修
bro ke
ch op
ir s
cor p
pur ple
inj ured
吸 收
war s
ill inois
o reg
ry an
法 规
ab and
bu ck
14 0
prom in
主 管
resol ve
w aves
chemical s
pre v
dist ingu
的 中
was her
很 好
ac o
qu ot
ira q
物 业
con grat
fit ted
appli es
talent ed
expand ed
危 险
di gest
pe st
satell ite
上 涨
产 权
解 放
elimin ate
发 动
景 区
fr ames
b apt
地 下
loc ally
一 流
to y
期 待
res cue
termin al
s ought
ex it
也 在
flu id
hors es
p um
safe ly
opin ions
pres cription
bu ff
数 学
不 错
mist akes
mere ly
stat ic
vari able
b age
绝 对
jun ction
shap es
re verse
en ess
部 落
la un
beautiful ly
compe te
decre ase
ar bit
frequ ent
所有 的
official ly
vo ices
hou ston
原 理
produ cer
g la
采 访
感 谢
bure au
登 记
社 會
rare ly
r h
re store
ol s
pil low
混 合
newsp aper
st itch
fire place
im g
discuss ions
演 员
ap ol
邀 请
campaign s
客 服
消 防
remo ving
sex ual
提 前
gather ing
浏览 器
galax y
un usual
就 要
深 刻
西 安
fru its
专 利
不 管
gl u
bul k
黄 金
spect rum
h il
should er
股份 有限公司
198 8
spac ious
represent ation
compli ment
j en
对 方
更 好的
rest oration
c ulation
an i
通 讯
well ness
開 始
系统 的
em bed
保 留
通 過
loss es
load ing
省 级
che aper
arrange ments
” “
也 就是
m its
dis counts
ab und
al ert
op pon
craf ted
使 命
地 球
l ace
s ne
塑 料
电 动
全 新
pic king
so red
let ting
个 性
带 着
ariz ona
小 的
govern ments
sleep ing
hen ry
scot land
subs cription
ant on
加 速
普 遍
po ver
immig ration
动 态
占 地
ch ips
fol der
chem istry
东 北
街 道
attr act
suppli ed
律 师
cl ust
ref uge
be aring
mus cles
van ia
inter views
b oun
rid ge
联 盟
co pe
基 因
fe wer
黑 色
简 介
岗 位
con fer
爱 的
stay ed
每 一
manufact ured
著 作
高 端
tour ist
wer en
lo l
min eral
boo ts
公 众
眼 睛
be ef
dis aster
2005 年
ab il
advis or
场 景
subsequ ent
几 年
ab or
mechan ism
leg acy
上 下
考 察
g ur
国 民
的 企业
类 似
apart ments
accom mo
back s
外 国
integr ity
一定 的
p ill
养 老
会 有
dis k
diagno sis
观 看
难 以
总 统
pass es
accommo date
名 字
in er
hy brid
un limited
董事 长
sign als
ou ter
base ment
princ iple
man if
electron ics
权 利
le ase
base ball
保 健
to dd
surv ival
餐 饮
transform ation
poss ibilities
br ian
对 此
人 力
wal ks
acquis ition
三 角
會 員
ro bot
put s
仪 式
ask a
% )
de fic
gl ut
sh ak
实 用
olymp ic
parame ters
col umb
tar gets
alli ance
spe ll
it ative
acc um
ber ries
special ized
install ing
address ed
at om
b om
们 的
检 验
万 辆
在 一起
g um
华 为
tro p
营 业
公 益
alleg ed
sho e
in quir
loun ge
f ence
comput ing
h unt
bach el
c kets
ck ed
rob ust
r as
日 报
personal ized
p ens
地 理
option al
accept able
t ang
老 人
15 00
di ame
周 期
dis c
ful fill
学 者
custom ized
或 是
招 聘
preci ous
ess ays
s ab
带 领
in fin
2013 年
sli de
小 区
bl ast
ed ges
blog s
re cover
alum ni
dele te
colo red
oper ator
rank ed
or ous
下 了
部 的
很多 人
工 商
exp ense
错 误
indic ates
fr ied
有 机
红 色
em bo
ch en
lock ed
virt ually
int u
2020 年
人 体
部 长
some how
mist ake
l un
就 像
experi encing
5 年
评 论
me tr
stru ggling
ten nis
1 个
pian o
如果 你
演 出
subst ance
部 件
不 用
check s
构 建
inspir ing
b atch
m ia
process or
商 标
鼓 励
vend ors
tay lor
报 名
pe g
b ic
sto cks
表 明
不 好
预 防
produ ces
sec ured
一 旦
surv ive
提 醒
me ters
总 经理
li ps
co con
d irt
agricult ural
describ es
承 诺
能 量
inst antly
女 儿
金 额
attemp ts
19 60
描 述
效 益
neut ral
co w
cro p
fant asy
t ension
搭 配
appli ances
蒙 古
市 委
最 好的
are s
cl er
hospit als
ear nings
divid ed
franch ise
g ang
carri er
gu ided
past e
rac es
同 時
insp ire
arrange ment
gro cer
12 5
sing er
p ione
select ing
photo grapher
烈 的
诚 信
decor ation
int on
qu ery
cocon ut
develop ments
tex ts
de m
sequ ence
l ag
评 为
校 长
和 谐
198 4
天 的
吉 林
做 了
本 人
fle et
rom antic
停 止
服 装
清 晰
的 要求
es y
may or
中国 的
构 成
b ou
rad i
選 擇
iv o
dis pos
char ging
西 南
mone t
surround ed
y on
fore x
完 美
never theless
m ild
得 到了
vp n
t ire
the o
answer ed
差 异
的情况 下
ta i
li ed
comple ting
east er
psycho logy
合 格
go spe
purch ases
mind s
impress ed
phys ics
pe er
shir ts
ident ification
land ing
soc cer
pl ing
screen ing
spon sored
售 后
ac compan
器 的
层 次
heav ily
c ig
thorough ly
ha i
引 进
很 快
每 一个
pregn ancy
考 生
jord an
攻 击
meaning ful
晚 上
岁 的
real istic
remark able
refer ences
d all
fun dra
oreg on
多 元
多 家
to s
is ms
em power
gar lic
三 大
r in
over come
stad ium
art istic
republic an
inter vention
sing ing
m am
se ctors
ca fe
efficient ly
l g
工 厂
elect ions
lad ies
sophistic ated
co ding
新 华
diffic ulty
har ris
创 意
suffer ed
男 子
ad ed
op position
well ing
作 出
阳 光
card io
nav y
estim ates
co ins
struct ural
legit im
h art
r im
中 有
产 量
山 西
w ol
do d
深 度
定 期
hal lo
arrang ed
t ender
cap ability
rece ip
eli za
。 “
vol tage
else where
v ard
别 人
trial s
原 料
清 洗
gener ations
中 间
measure ment
愿 意
auto motive
198 6
p ir
collect ive
f red
so ap
一 段
方 位
die go
sent ence
enem y
基 层
od y
amen ities
modif ic
日 起
gl as
制 品
deli vers
relax ing
f usion
dis ability
in hib
exerc ises
represent ing
ar med
can nab
victim s
作 家
景 观
工作 人员
书 法
ac res
consult ant
( “
集 成
us d
phys ician
appreci ated
concent ration
wi der
con vey
occasion ally
年 龄
市 民
20 th
ist a
顺 利
make up
assist ed
支 部
老 年
而 不
rating s
警 方
abstr act
po ster
row s
198 7
aim ed
不 了
商 家
赛 季
aust in
流 行
ent ries
po ke
re wards
fan cy
fed er
g ently
导 演
book mark
columb ia
监 测
b inding
terr itory
飞 机
國 際
获 取
fun eral
在 这里
明 星
vi agra
h z
atl antic
b att
i ary
autom ated
gam bling
m ask
ent ity
sustain ability
地 的
re fin
roll er
是 个
agree ments
a j
ig ation
he m
identify ing
海 洋
更 为
使用 的
qu is
精 品
inter act
mach in
爱 情
cand y
g ly
stop s
penn syl
dram atic
toile t
ont ario
pers ist
p se
登 录
compet itors
assign ment
orient ed
亚 博
port al
athlet es
赢 得
g ross
mi ami
str aw
log in
深 化
意味 着
short ly
c v
back ed
in ser
key board
东 南
nat ives
招 生
p unch
称 号
specific ations
管 道
bar rel
at ten
pu b
cou ch
vibr ant
ke vin
ri vers
pursu e
protect ing
药 品
no body
provin ce
decl ine
per ce
prof iles
日 期
梦 想
bio logy
5 th
sur faces
2 20
转 型
pl umb
事 务
dan cing
车 站
un ity
人 大
en or
ck er
public ations
空 调
bo om
s ket
stream ing
convers ations
emphas is
d ive
treat s
restr ictions
ex em
指 挥
cont acts
as sured
gr ip
es h
decor ating
民 间
car ing
le on
cur ious
scen ario
laun dry
roll s
会 在
联 赛
199 3
hab its
el ite
dete ction
independ ence
kn ife
news letter
清 洁
oxy gen
經 濟
point ed
ba ke
moist ure
pennsyl vania
rece pt
tal e
myster y
poe try
古 代
fa ke
hallo ween
宗 旨
rele ases
super b
的 外
or che
time ly
effect iveness
cock tail
收 藏
新 型
的 水
sign ing
art work
用 品
拓 展
lan ta
expand ing
painting s
v ip
ke en
ver sus
dut ies
广 西
直 到
股 东
n fl
extra ordinary
al er
passeng ers
意 外
房 屋
( $
课 堂
cred its
he im
il der
五 年
利 率
熟 悉
形成 了
pl um
stro ke
十 八
生 產
dang er
r f
diame ter
pro portion
决 策
秘 书
舒 适
pro secut
de leg
sim ult
取 消
ond a
optim al
t ier
pet ition
work out
met ab
病 毒
re ction
pro test
dis ab
dis order
li th
i as
明 白
po inting
p end
resul ted
ag enda
部 队
上 面
bacter ia
q q
控 股
simult ane
vie wer
快 3
增 速
be ta
名 的
ho c
move ments
美 食
调 节
wor ried
prop he
w olf
适 用于
stat ist
sal ary
大 幅
pol ish
新 疆
min er
wish es
be c
sim pli
mill er
上海 市
一 是
美 國
air y
cour age
ne west
qual ify
advis ed
prec ision
厂 商
成 為
书 面
bachel or
am b
io x
associ ates
实现 了
大 奖
播 放
facilit ate
at ically
od es
am y
but tons
学生 的
he ated
全 省
in os
ac les
bab ies
st all
bin ary
低 于
nur se
师 范
int end
成立 于
gain s
des ert
kne e
& #
副 主任
haz ard
现 金
at lanta
介绍 了
i ac
neigh bour
上市 公司
t une
subs cribe
循 环
io t
g au
十 一
sh ades
? !
fro zen
某 些
现代 化
ind ones
win es
和 平
微 博
pre st
la ure
smo king
victor ia
的 内容
demonstr ated
ber lin
genet ic
class ical
fascin ating
流 动
监 控
autom ation
带 来的
ing e
access ed
at tain
sand wich
t we
就 有
成 分
超 级
信息 化
項 目
au ction
jur is
man ip
最 低
ep ic
meth odo
显 著
陕 西
plumb ing
test im
实际 上
认 可
seat tle
cor responding
pol ar
很 难
第 一个
advis e
advent ures
圆 形
血 管
症 状
secur ities
场 所
crib ed
出 去
感 情
ad option
此 前
al arm
are t
church es
op posed
gospe l
出 席
生 存
2004 年
beach es
投 資
的 设计
识 别
bu ilder
sol ving
oper ators
热 情
力 度
cred ited
har ry
vac u
策 划
ple ments
气 候
pal est
divor ce
log ists
起 了
sar ah
t ong
接 近
线 上
ud es
wholes ale
trop ical
a o
cult iv
ther mal
reli ability
inter actions
plu gin
d ave
mal ays
y er
parag rap
i ro
物 品
acknow led
achieve ment
ot ic
al ike
collabor ative
家 居
电 源
物 的
看 着
jo ys
禁 止
liber al
bet ting
us s
jac ket
ca the
out fit
tru cks
ut ical
sp are
新 技术
cl ou
roof ing
veter ans
and y
通 道
b out
處 理
cu is
holly wood
similar ly
” )
排 放
in ate
uni form
proceed ings
se pt
intellig ent
can vas
spo ken
大多 数
志 愿
百 姓
c ous
纷 纷
redu ces
dynam ics
market place
adel ph
ib m
仪 器
女 士
荣 誉
design ated
加 拿
周 围
意 大利
ton y
batter ies
ret ro
announce ment
manif est
生 素
versat ile
p acking
gu il
e igh
出 发
l is
展 览
以 上的
inv as
explan ation
b 2
abs ence
本 地
shado w
town s
sett led
信 心
con solid
acknow ledge
gr ants
contribut ed
sch em
dead line
变 成
缺 乏
pro pr
g il
mat the
接 口
19 50
ep is
where ver
15 日
navig ate
d ensity
in corporate
list ings
dro ps
jo sh
wil son
pover ty
pat rick
enjoy able
har mon
较 为
. ;
上 一
博物 馆
十 九
客 戶
bl ade
machin ery
业 绩
较 大
attor neys
confident ial
都 要
recruit ment
n b
ro bin
ud i
clean er
原 来
em issions
light weight
d ated
成 交
永 远
clo set
tutor ial
un es
applic ants
eliza beth
depart ments
prov isions
pt on
hor r
kn it
厚 的
現 在
t ts
考 核
女 子
od ds
這 些
lin ing
kill ing
coup ons
财 经
incorpor ated
19 th
over seas
special ty
min nes
l ac
每 次
主 体
th al
的 基本
mar vel
gh an
2003 年
exc ite
magnet ic
m ul
gener ous
flow s
vill a
dav is
crush ing
i en
資 訊
w ound
即 将
occas ions
提 出了
bar n
permit ted
总收入 的
2 年
1 15
don ation
encour aging
g p
两 人
审 核
end less
199 1
implement ing
element ary
de put
aller g
cy lind
preser ve
g le
周 年
al an
ur ious
n m
ch al
ner vous
rough ly
an no
limit ations
输 出
是 有
专 注
电 机
un certain
机器 人
t iff
st ere
院 长
含 有
预 期
tre mend
admit ted
g ab
贵 州
tim ing
emp ire
trail s
v ig
时 刻
都 可以
son y
b ite
n j
是 以
phenom en
d ict
思 维
配 件
cr aw
cor respond
reg ards
gather ed
旗 下
jud gment
ll er
sor ts
fortun ate
f on
pl as
学 员
med itation
involve ment
dre w
capt ured
這 樣
vacu um
ul ating
out doors
做 的
are st
complain t
coach es
l b
am el
bo ats
提 交
in vention
prom ises
行业 的
under lying
规 律
if er
斯 特
ro cks
提供 的
contain ers
! ”
comed y
透 明
r ally
gradu ated
百 分
ver ify
pal ace
体 制
ach es
g ay
bur den
复 合
ser ial
dis orders
ath y
stru ck
情况 下
cult ures
meas uring
expl oration
的 使用
whe at
含 量
西 方
gr ill
而 在
prom ising
孩子 的
cr a
也 能
设 有
r ix
sa il
w age
execut ion
minnes ota
高 质量
f m
成 人
man chester
navig ation
comp ly
deser ve
hand ed
vo ting
u ous
强 度
癫 痫
co ating
phil adelph
dall as
形 态
等 级
bo ts
ill um
sold iers
don ations
车 型
crip ts
b ones
k its
p ent
in her
achie ving
sole ly
se ating
ge m
保 存
随 时
sur gical
( "
swe at
w art
en do
的基础 上
publish er
之 路
存 储
累 计
电 商
think s
ape ut
b ors
健 身
ag a
24 小时
camp ing
道 德
地 点
是一 款
l one
an ony
对 手
like wise
g low
der ived
oper ates
屏 幕
短 期
us al
gg ing
本 公司
accept ance
reno wned
trave lling
step hen
各 级
fast est
10 5
compass ion
restr icted
wo ol
val ve
wa x
d m
exclus ively
fil ters
honest ly
b ally
参 观
特 性
mar ath
mag ical
k ur
教育 部
rhy th
当 年
蔬 菜
快 三
p ound
影 视
boo th
本 网站
mut ual
万 吨
衣 服
out look
qu il
adjust able
vulner able
ky o
可能 是
bott les
j ail
we ird
mix ing
con sole
re call
scr ap
总 裁
er o
in ject
ref ers
com posed
affect s
stom ach
印 刷
模 拟
philadelph ia
家 人
ag u
mes h
z u
push ed
参 数
str ive
back yard
生活 中
bio logical
無 法
权 威
二 是
退 休
bl ues
a ar
或 许
ship ped
l c
rout es
knowledge able
] ;
s care
phys ically
女 孩
注 明
t ort
ol dest
narr ative
ace utical
24 0
怎 样
ju ana
线 路
dial ogue
aren a
ham mer
in ity
vo ter
领域 的
诊 断
lin col
一 带
b am
div ine
第三 方
relax ed
g ad
t iles
push ing
标 题
po le
kore an
shel ter
bless ed
大 师
color ful
popular ity
bb c
instruct or
organ ize
mod ules
b ent
3 个
s la
还 在
如 有
dig it
rel ate
21 st
experim ental
any time
医 药
确 实
平方 公里
cher ry
行 業
身 边
prote ins
attr actions
util izing
ra ine
大 大
天 气
thir ty
锈 钢
先进 的
巨 大
w p
也 要
work force
squ ad
spo kes
尊 重
是 最
开 启
re cess
par ish
18 日
节 能
建筑 面积
advis ory
咖 啡
大 學
会 的
呼 吸
国 的
su med
ap y
je an
fing ers
到 达
青 春
来源 于
师 生
已 有
广 播
ac re
pregn ant
techn icians
ious ly
cup s
p interest
作 物
lincol n
paralle l
哲 学
相关 的
危 机
ach use
coun ted
embo dim
预 算
的 需求
scor ing
環 境
jan e
下 去
破 坏
spl ash
cogn itive
de an
president ial
時 候
转 移
当 代
专 题
r ian
in sert
progress ive
jun k
expl or
confirm ation
p av
retail ers
promin ent
ic ide
del hi
christ ians
munic ipal
sub tle
世界 上
imp acts
事 项
bo ther
tre ating
建立 了
pr on
alter natives
can on
bud d
e cho
有 很多
mic hel
roll ed
专 辑
ast y
table ts
mass achuse
把 握
follow ers
透 露
add iction
respons ive
conserv ative
investig ate
占 总收入的
荣 获
il itation
massachuse tts
he al
r ational
一 系列
我 想
mel bourne
p ines
s ip
t ied
ac ry
transfer red
dut ch
passeng er
地 面
社 交
min t
libr aries
ass a
decor ative
determin ation
rail way
scre ens
recommend ation
研究 院
截 止
贫 困
12 日
present ations
celebr ated
高 达
colleg es
俱 乐
回 答
总 是
show case
reser ves
aud it
pen alty
exhib it
com ic
mob ility
had n
hand led
poll ution
y ar
多 人
记 忆
invest or
t m
modif y
g ments
p k
mu sh
bank rupt
stop ping
analy ze
im aging
not ification
美 容
t wel
measure ments
ther apeut
走 向
different ly
medic ations
enab ling
interpret ation
和 社会
lo cks
discipl ine
gain ing
des per
思 路
writ es
potato es
慢 慢
coast al
l p
ac cent
difficult ies
motiv ation
le is
ch ev
recycl ing
mor tal
技术 的
大学 生
oblig ation
ret ired
股 权
调 研
还 可以
produ cers
fil ing
some body
财 产
总 部
form ing
cou ples
e bay
j ason
spr ink
发 的
奖 励
ul tr
ca ve
設 備
有效 的
销 量
tack le
翻 译
blog ging
indian a
6 日
sun ny
deem ed
vo ters
bul let
大 赛
fis cal
and erson
sh ake
ph d
graph ical
并 不是
ct r
qual ities
pharm acy
accompan ied
4 50
w re
学 历
overwhel ming
ast ron
vas cular
细 节
ende av
阿 里
允 许
收 购
未 经
租 赁
in sect
同学 们
城 镇
wal es
专 用
thre ats
n ich
依 靠
islam ic
加拿 大
v on
出 来的
定 义
mo s
gran ite
h ut
但 在
tr iple
labe ls
可 见
= =
care ers
list ic
match ed
nice ly
各 位
回 家
ct ic
prin cess
g host
人 員
的 故事
re vers
psycho logical
disab led
妻 子
vend or
aggress ive
offer ings
为 准
ad ing
带 动
mus lim
是 不是
th a
su ited
valu ed
establish ment
sou theast
stead y
武 器
music ians
lux urious
路 上
： 「
accompl ished
异 常
st ur
tr ace
line ar
l ion
學 習
服务 的
hi king
icon ic
entreprene urs
te ar
entertain ing
arrest ed
to ss
wis cons
主 办
dr ome
劳 动力
di um
go s
un likely
kel ly
gd p
十 三
舞 台
' '
dis crim
生活 的
hit ting
out let
sc roll
文 物
je ws
democr acy
struct ured
moder ate
sell ers
的 原因
sac rif
pl er
br ac
等 待
精 心
cush ion
f ired
他 说
失 败
讲 述
veter an
cal ories
upload ed
d ic
看 来
工程 师
oper a
判 断
ox ford
weap on
mill s
calcul ated
补 充
画 面
wiscons in
we ld
sist ers
download ed
建 設
ut ed
des c
ob st
b icy
公 交
西 北
jud ic
mari juana
让 你
war ri
decl ared
architect ural
开 奖
dist ur
brea thing
警 察
ay a
精 准
订 单
非 洲
precise ly
什 麼
宗 教
has h
园 区
视 觉
ia h
cab in
pharm aceutical
芯 片
均 为
影 響
有 时
此 时
con strain
gre ens
prefer ences
tail ored
hard ly
hum id
不 锈钢
star ter
according ly
b ann
担 心
op h
collect ing
他 人
stud ios
内 外
过 的
read s
int ensity
t ens
同 一
辅 助
excite ment
an thro
to yo
10 2
广东 省
ann y
bran ches
ex ped
引 领
ch in
少 数
执 法
tre k
很 有
bre w
ran king
all en
电 器
驱 动
ap ers
不 久
terr ible
b ree
在 北京
ann ually
wind s
删 除
爸 爸
a ids
inter val
各 大
ic ting
】【 、
at i
adjust ed
黄 色
bl ank
fa x
兄 弟
h ired
防 治
】【、 】【
phr ase
人 群
g ates
动 画
dr ied
harm ful
务 工
改 进
com mod
dress ing
shor ter
无 人
rad ical
argu e
g us
分 配
房 子
particip ated
m ation
福 利
wr apped
mathemat ics
on ing
ess ence
motiv ated
grad es
ine vit
de clin
administr ator
日 子
ch and
积 累
techno logical
v able
全 方位
susp ension
10 8
home work
bu zz
25 日
房 间
comp ound
cannab is
r c
便 是
arch ive
cate gor
neigh bors
acc idents
电子 商务
lif ting
厦 门
pass age
n ba
收 费
leis ure
enc lo
consider able
tour ists
g art
fort une
en ix
e ur
sim on
式 的
指 定
pho sp
b omb
world s
我 校
leg ally
util ized
var ied
食 用
home owners
lo vers
p ist
p he
學 生
ob serve
国家 级
ve gan
flav ors
s ke
之 下
试 点
excess ive
cer amic
的一 些
peace ful
requ iring
国 有
高 考
if ier
under ground
常 常
更 有
27 日
还 能
sens it
gl ory
ben e
start up
order ing
ne at
h ud
印 象
ce ment
k iss
同 步
it zer
en rich
bor ough
h ann
无 线
le wis
protect ive
取得 了
1 12
打 击
海 南
igno re
arch ives
trans it
consum ing
a is
因 而
se me
sol ved
inv itation
conver ted
一 场
神 秘
atten de
保 護
10 日
20 日
frid ge
. -
合 金
家 里
or n
科技 有限公司
re placing
公 平
财 富
magn ific
congrat ulations
胜 利
2002 年
义 务
govern ance
k ansas
incl usive
干 燥
ch ing
celebr ating
4 000
顾 问
dir ty
引 擎
j ess
问题 的
wel fare
fac ial
as er
hun ter
well s
que ens
lod ge
同 期
memor able
获得 了
inter pre
ak ed
gradu ates
j as
ju li
mary land
stake holders
bare ly
的 数据
7 50
g m
k am
应 对
落 地
t ick
imag ination
y um
appli ance
hero es
as sur
war ming
一 批
页 面
伤 害
矛 盾
人工 智能
ber n
guil ty
wi k
season al
attend ance
不 良
功 率
球 员
rad iation
歌 曲
發 現
en joys
destroy ed
哪 里
强 大的
新 时代
sol ic
履 行
def ensive
城 区
pr iest
e ager
am bit
r av
t id
供 给
】 ，
10 th
optim ization
catal og
e book
aut um
k on
gener ating
刚 刚
详 情
cl ark
容 量
早 期
gr a
iv a
belief s
寿 命
文 艺
form ats
stay s
inst ances
don t
pan ic
determin ing
奥 运
bu gs
comb ines
终 端
种 类
de lighted
phar mac
tim ber
ne ther
char ts
corpor ations
3 g
6 th
complain ts
ma inst
cl inton
ish ment
chr om
自动 化
ref lection
br ace
grocer y
r amp
ne o
so ver
ma id
merch and
c pu
print able
很 大的
kil ome
eth ics
weak ness
ex plic
conf used
sp ar
为 一
med it
s its
非 法
mar ble
trad itions
p son
press ed
lu ke
rece ives
int ensive
sing les
syn drome
俱乐 部
ev ident
prem ises
> <
mot ors
swe ep
依 托
can cel
w ings
才 是
人民 共和国
由 此
reg ime
sens ors
complex ity
硬 件
号 码
it able
stere o
( )
poss ession
def ence
性 质
方 的
down s
名 单
li able
toyo ta
cycl ing
t ires
利 亚
ad opt
sp at
十 五
lo bby
sub mission
fo ol
no de
修 复
tem p
2000 年
per ception
cuis ine
viet nam
人 为
athlet ic
sil ent
c ents
st ing
air lines
embed ded
enor mous
团 体
de feat
end or
run ner
th ur
多 样
po o
国家 的
” （
ik a
s lim
v id
陶 瓷
scre w
cam bridge
ig ue
grad ually
fall en
separ ately
secre ts
stri king
发 出
饮 食
班 牙
辐 射
電 子
tax i
5 日
f da
培 育
den ver
experim ents
初 步
amend ment
glut en
放 入
各 自
青 岛
文化 的
tit led
p am
上 半年
pl a
cost ly
sc at
rental s
de ll
appreci ation
ac ou
char ming
爱 好
be ars
r he
西 班牙
ch ase
car ries
bi om
i ge
也 就
独特 的
pal e
dies el
six th
多 年的
che er
很 好的
hand les
gl or
thanks giving
活动 的
respond ed
在 全国
inter med
服务 器
sne ak
将 其
pe el
ste ering
bon ds
anti que
审 查
an es
放 弃
水 泥
oblig ations
matthe w
用 途
sen iors
g lit
p ants
用 来
special ly
cycl es
t b
凭 借
in no
char m
blue tooth
discre tion
公 元
尚 未
巨 大的
年 级
我 是
opt ical
shel ves
hoc key
群 体
class ified
public ly
far ming
所 得
dis closure
enterpr ises
17 0
function ing
promotion al
m ice
path s
cl ude
00 00
zo om
投 诉
phys icians
be gun
do c
ware house
pool s
招 商
simultane ously
1 200
br ass
每 日
虚 拟
dec iding
实 时
mon ster
dest inations
也 很
的 专业
monet ary
for gotten
consist ency
infl ation
embr ace
re vel
mon u
twel ve
这 款
do z
gun s
在 一
affil iate
留 下
ac ute
comb ining
有利 于
sup plements
mechan isms
也 许
冲 击
res il
cent uries
ail and
depart ure
维 持
理 财
integr ate
山 区
incl usion
count less
外 的
等 多
malays ia
授 予
都 市
ligh ter
hol ster
train er
h iv
最 早
il ation
speed s
也 没有
和 其他
char ter
对 比
配 备
confer ences
be loved
sp her
情 绪
消 費
自治 区
信 任
th under
propos als
出 行
d airy
会 长
where in
197 8
in trig
de fe
bas ics
nation wide
不 但
th ailand
he ights
激 光
any body
太 平
当 中
切 实
v otes
if t
共产 党
p ension
学 家
diagno sed
197 9
deput y
f ate
p ng
侵 犯
省 委
ch ant
be am
m 2
传 递
speak s
y ang
he ater
pack s
的 历史
餐 厅
favor ites
disput e
t z
做 法
的 市场
风 景
土 壤
家 族
说 的
per mal
cross ing
climb ing
st ag
resol ved
reflect s
ch lor
转 化
forum s
ar c
do zen
fish er
ear s
ear ning
insul ation
institution al
辅 导
ment or
io wa
ton es
另一 方面
第 六
ro be
ge ome
flo at
lo ver
str ap
invest ed
j enn
频 道
let te
26 日
境 内
br ide
under graduate
13 日
hes itate
build s
2 个
回 收
ash es
审 批
qu et
as m
委 托
ro ber
qu ad
gram s
st ap
permal ink
人 文
外 出
灵 活
11 日
reve als
青 少年
compan ion
autum n
占 比
城 乡
cou ver
sa udi
key words
transp aren
o e
there by
肿 瘤
竞 赛
地区 的
j s
surprising ly
面 前
春 节
on ia
establish ing
该 公司
辽 宁
局 长
flo ating
com bo
大量 的
st en
discus sing
长 沙
褐 色
off ensive
lab s
加 热
部 位
r ie
那 里
sup porters
团 结
human ity
tr id
30 日
past a
introdu cing
catch ing
10 年
van couver
传 感
cr ic
pre ach
一 级
一 方面
7 th
心 里
站 在
mex ican
高 温
bi kes
sil k
veget able
tomato es
形 势
否 则
vari ations
进 展
pen e
男 性
f la
代 码
网 页
ap pre
mic row
influ enced
bath rooms
sac red
ta sty
飞 行
eth ical
拒 绝
van illa
eth nic
] ,
dro ve
conscious ness
x p
gen re
anticip ated
sp ouse
原 创
上 有
办 事
12 3
audi ences
pro spective
出 售
de struction
的 手
court esy
ve ctor
anim ation
8 日
liter ary
最 多
ab ad
西 部
ado be
可 在
处 罚
document ary
书 画
nutri ents
ing ton
so o
des ir
port ions
申 报
cle ver
re gre
individ ually
clar ity
气 温
漫 画
特 朗
dis abilities
receip t
l ately
模 块
花 园
ident ical
彻 底
vent ions
2 d
in sured
be ck
ap pet
经济 发展
address ing
o li
med al
结构 住房
swi ft
mult ip
prevent ing
氛 围
rang es
rehab ilitation
sp am
如果 您
imm ers
de tro
型 号
port land
业 内
cou pled
continu ously
block ed
长 江
pr izes
home made
expect ing
barri er
ag an
hi ke
cand le
h onda
有 什么
ev a
至 于
democr ats
有 点
重 量
ne ll
gul f
ed ward
lock smith
legitim ate
re treat
3 20
in take
r af
inter nationally
gar bage
present ing
魅 力
de ta
plant ed
hawa ii
尝 试
cur ve
ste ll
l bs
区 别
著名 的
tremend ous
! ).
x i
sh im
syn thetic
格 局
implic ations
transparen cy
b mw
ha ha
com posite
不 在
当 天
ac company
te ars
fli x
dr af
prospect s
7 日
便 捷
theo ret
从 业
市 政府
we ls
mal es
den ied
con vic
far ms
m ason
sy ria
partic les
mother s
k om
cb d
detro it
9 日
业 收入
u ber
manufact ure
研 制
ful ness
exam s
wal let
盈 利
bal lo
予 以
商 场
ad hes
合 适
想 法
aer o
三 十
的 安全
大 约
紧 张
pre view
是 对
past or
让 我
这 位
所 需
海 拔
8 th
等 地
百度 地图
bron ze
违 反
straight forward
g li
v ap
在 使用
深 受
ant ib
bu cks
z i
检 察
老 板
集 團
du plic
epis odes
s ig
met all
d ings
th umb
an gry
sh aw
毕业 生
hor ror
dis appointed
har bor
打 印
走 势
m organ
免 疫
signific ance
st abil
ten nes
co co
i ber
引 发
的 管理
st ol
har sh
them ed
custom ize
program mes
head quarters
symbol s
协 助
car go
advoc ate
密 切
ma h
特朗 普
b end
多 了
pra ise
2 10
in ium
do ck
tur k
dent ist
外 交
扶 贫
com for
prom p
partner ships
中华 人民共和国
statist ical
h h
bankrupt cy
活 力
organ izing
新 浪
板 块
走 进
ad jac
幸 运
混 凝
cre ator
網 路
毕业 于
奋 斗
齐 全
re ver
天空 部落
关 心
脂 肪
liber ty
无 限
营 造
indic ator
compe ting
tr ibut
af ghan
想 象
fail ing
电 信
eas iest
cent res
r ides
car ib
wel coming
recip ient
同比 增长
s ri
让 我们
indones ia
决 赛
邮 件
新 区
in cur
ha ul
res on
philip pines
的 中国
nether lands
开 拓
grow s
m ba
规 格
18 00
pay pal
图书 馆
pain ful
seme ster
导 师
sp y
的 那
ent ities
for k
味 道
treas ure
涉 嫌
st air
portra it
发 达
淘 宝
char lot
4 日
供应 商
s f
创 始
p om
f ame
en to
flor al
renew able
上 线
if i
平 安
普 及
澳 大利
研 讨
职 责
brand ing
f ires
适 当
po ts
ind igen
isra eli
p add
则 是
大 概
dy ing
发 送
regard ed
champ ions
pros per
f law
中 山
材 质
read ily
fail s
appoint ments
guard ian
编 写
jud ges
本 網站
行 情
dedu ct
attende es
refriger ator
r ations
足 够
tat too
bound aries
mig ration
niger ia
出 台
st re
hospit ality
th on
l il
商 城
进 程
违 规
dis sert
dress es
, ,
实 在
man us
bene ath
斯 坦
vari ables
subsequ ently
yam 天空部落
it z
明 年
界 面
ne arest
activ ated
dispos al
ar ise
vis ibility
bar bar
pho enix
dry er
miner als
train s
friend ship
无论 是
转 变
客户 端
ins ist
pay s
r ach
的 第一
wr ight
assur ance
公 斤
观 念
鉴 定
告 知
co sme
ni ke
bak ed
赚 钱
ac ids
adjac ent
her bs
lit igation
coordin ator
发 言
v m
小 米
条 例
am bass
li hood
motor cycle
ju ven
paragrap h
var ieties
attribut es
咱 们
col lar
car to
aut on
ener g
argu ments
竟 然
pat ience
传统 的
在 大
remind er
none theless
appe aling
mor ris
反 对
cli ff
conduct ing
pre ference
au ma
k w
thre sh
mar s
pix el
p ond
4 个
现 状
过 滤
ne ts
更 换
du bai
fellow ship
doz ens
r ag
r ival
而 成
id u
sad ly
十 大
bal con
organiz ational
明 的
sun set
separ ated
电视 台
fold ing
mole cular
腾 讯
sn acks
distinct ive
algorith m
tennes see
p ile
将 于
维 生素
demand ing
融 入
纪 委
相应 的
on ion
mem br
water proof
obtain ing
日 益
attemp ting
cine ma
magnific ent
book ed
contin ually
pop ulations
fig ured
van ity
indigen ous
out line
理 由
玉 米
per tain
gen ic
t ical
一个 人
cell ular
legend ary
赛 事
cor ners
board ing
198 5
al ab
ke eper
管理 局
bis hop
palest in
说 是
新 增
超 越
maxim ize
aes thetic
health ier
thro wn
counsel ing
地 铁
相 结合
马 克
了一 些
混凝 土
原 本
地 上
man ually
hun gry
重 的
trou bles
优 良
经 销
li z
qu eries
ax is
dur ability
commission er
o a
分 离
es p
trick s
听 到
gener ator
区 块
de er
net flix
签 订
art ic
build ers
activ ation
ades h
账 户
wal ker
intu itive
b art
off s
职 务
alex ander
marath on
季 节
ter ing
ca ution
中国 人民
stick s
树 立
sup pose
刑 事
con e
aw s
协 同
28 日
对 其
护 理
ok la
dr ill
sc and
surve ys
休 息
adjust ment
的 精神
close st
the ft
or i
por k
new er
应 急
de pot
per su
基础 设施
2001 年
bub ble
讲 话
th o
讲 解
工 人
te ens
our i
north west
ran ch
不 想
建 造
的 能力
reason ably
ter race
support ive
teach es
gro ve
res or
ath le
rust ic
收 获
gate way
路 面
re creation
sa ke
isol ated
发动 机
必 然
bor ing
execut ives
作 為
asp ir
已 成为
用 戶
art is
grad uation
refer ring
根 據
po ckets
释 放
acc used
block chain
sal mon
病 人
fre el
non profit
thresh old
k ia
皇 帝
pe o
产生 的
记 载
en o
ak i
18 th
separ ation
pul ling
round s
therapeut ic
v ouch
百 年
遵 守
以下 简称
n ag
多 数
% 、
sw iss
neg lect
po et
-- -
sli des
并 非
ste ep
sli ding
throw ing
re con
iz able
sn ack
传 承
tr auma
don ate
范围 内
项目 的
anth ony
p enc
r v
責 任
a we
结 婚
fe as
rece iver
超 市
ref used
s cent
出 現
av iation
dist ric
秘 密
log istics
schol ars
assum ing
不 住
余 人
年 夜
re sem
car n
gl ue
l ang
方 针
te es
f lies
inform ative
dess ert
大 发
為 了
喜 爱
她 们
bl ame
delic ate
elder ly
s ain
练 习
xt ures
tr ap
军 队
的 朋友
mac ro
d n
编 制
dress ed
convin ced
b ie
答 案
de e
sm s
心 中
am id
在 这个
custom s
illustr ated
ador able
k b
or acle
ind irect
還 是
dipl om
期 货
consult ants
compr ises
home less
vol unt
功 效
自 信
con cluded
educ ated
e a
赔 偿
mu no
手 续
摘 要
阳 市
5 个
的 首
人力 资源
好 像
挖 掘
hur ric
prior ities
hom a
distric ts
巴 黎
障 碍
n ish
ny c
dedic ation
真正 的
效 应
accur ately
calcul ate
框 架
ab c
mind ed
读 书
均 匀
生 意
est er
参加 了
renov ation
v or
polit an
k as
air line
苏 州
pan e
explic it
被 评为
connect ivity
decor ations
交 换
mand atory
reser vation
now ad
hand ful
基本 上
过 来
clean ed
fab rics
g room
最 为
绿 化
认 定
co le
contact ed
建 有
高 于
我们 将
. ).
w and
危 害
she ep
rup ted
twe et
nowad ays
出 一
su san
bor ders
compliment ary
r ho
电 压
for cing
death s
cot tage
li est
te c
承 包
是 我
转 换
glo bally
p ics
千 万
合 成
探 讨
ligh ten
全 力
加 坡
st up
mar ia
sport ing
mar sh
澳大利 亚
防 水
integr al
regul ated
路 线
bo asts
practition ers
d ak
投 注
江苏 省
n ano
纪 律
19 20
ord ination
知识 产权
tun ed
decre ased
大 道
var iation
coal ition
边 缘
barri ers
vill ages
优 先
th ai
ging er
un necessary
microw ave
desir able
而 不是
ar ia
sour cing
apol is
实 体
请 求
po ison
ic ious
ad verse
22 日
per mits
ass ists
pen al
medic are
ot ions
switch ing
scott ish
典 型
spec ify
pip es
好 了
cra ig
mainst ream
各 界
al aska
ip her
da wn
你 可以
潮 流
claim ing
z ones
二 手
常 务
较 高
found ing
compe lling
r r
情 感
to ast
纽 约
uck y
loy alty
so y
开 关
adv ances
被 称为
市场 上
iat ric
p v
民 营
hon ored
lever age
開 發
g lim
上 传
不 會
欣 赏
瀏 覽
to ll
high lighted
ok ed
" )
不 多
pract icing
minim ize
foo tage
生 于
to bac
sur f
mar king
log s
sto ve
数据 库
accep ting
书面 授权
de voted
strength s
we ed
t d
on ic
sh ame
br ake
viol ation
资 质
完成 了
tast ing
vessel s
4 k
h ans
o res
re sur
diagno stic
成 年
re actions
19 0
t n
tast es
d as
大 气
机 遇
detect ed
parad ise
它 是
lin er
纪 录
15 th
hand made
merchand ise
l ender
en zy
10 4
tit an
公 寓
原 始
12 8
tax pay
pick s
生 动
has sle
c ass
教 研
有 趣
net t
document ed
b p
适 用
ne v
local s
l enders
draw ings
客户 提供
多 年来
ran ks
swed en
给 了
wi z
car trid
ci um
气 体
化 妆
im muno
sil ence
高 清
全 文
re set
科学 院
新 加坡
的 东西
me ta
center ed
r uling
12 th
秉 承
t ig
過 程
h c
to e
eag le
carib bean
x ml
dark ness
sensit ivity
miss ouri
seem ingly
不 如
view ers
vol umes
hard wood
深圳 市
ele ph
入 口
村 委会
10 6
see ks
f x
re act
传 说
出 租
库 存
ener y
ma ine
tro ops
applic ant
associ ations
remind ed
vary ing
的 价格
lect ure
得 以
的 目标
nor theast
cas inos
map le
美 好
补 贴
究 竟
il ton
feder ation
particip ant
zo o
cater ing
的 热
gu ards
wa ist
contribut ing
h att
密 度
的 所有
own s
subs crib
vit am
coun ters
polit icians
g ia
万 个
主 角
曝 光
fundam ent
m apping
l enses
乡 镇
教 练
out ing
man ship
gr ave
kno ck
gree ce
drop ping
地 质
密 封
流 通
wi des
enem ies
验 证
sim ulation
c ill
t ure
便 宜
an chor
after wards
deploy ment
您 可以
comp aring
cool er
最 具
档 案
电 路
cheap est
loy al
尽 量
so li
surv iv
享 有
卫 星
研究 中心
kind le
finish es
okla homa
regist ry
性 格
美 女
逻 辑
sh u
organ ised
san ct
genes is
对 应
li min
su ites
bo d
ane ous
d iving
其 次
本 文
bl az
viol ent
ill ance
respect ed
b ted
nur ses
bi as
业 主
互 相
or nam
con secut
pump kin
t ends
店 铺
flow ing
. ’
bas el
00 亩
ste ak
attemp ted
总 数的
长 时间
cial is
wh ip
grav ity
conf usion
更 高
率 为
surve illance
d ul
冬 季
回 来
con junction
qu er
up holster
10 px
传 奇
途 径
rou ter
前 后
图 像
cre atures
cle ans
pear l
p ies
su icide
sacrif ice
獲 得
le ster
pipe line
特 別
in expensive
i q
又 有
甘 肃
su v
打 破
比 較
ab a
out lets
co zy
医 师
sa iling
profession ally
decl ar
thick ness
trad es
nail s
mo des
lamp s
国 产
cost ume
greg ation
r ays
传 输
写 作
在 美国
bu cket
travel s
wil der
今 后
的 三
sl ice
anton io
4 g
s wee
mo ore
力 和
car l
dev ast
b iz
面 上
ly rics
controll ing
星 期
trade mark
ne x
kent ucky
将 军
支 出
del ta
sand y
observ ation
in voice
cris p
ig ious
compar able
re pli
ar gent
un lock
lap se
propr iet
ang ular
cred ential
格 式
粉 丝
bill ing
need ing
pat rio
债 券
采 集
pair s
forest s
间 的
off ense
wel comed
n az
外 观
sh ep
cu b
sum mar
接 收
in fer
analy st
legisl ative
orient ation
tr ac
let on
ban ner
appe aring
intim ate
gau ge
适 宜
former ly
pro xim
收 录
ne ur
显 得
毕 竟
留 言
suggest ion
快 递
的 公司
ion al
mill enn
rit ual
pene tr
粮 食
pe ers
fr action
not ify
sw itzer
itar ian
dimension al
总 书记
离 子
per spect
can al
substit ute
各 国
me lt
affect ing
压 缩
干 净
can yon
est e
plant ing
res ign
cor ruption
ph an
tal ents
16 日
chap ters
bru ce
st um
au f
x l
是 因为
漂 亮
配 送
fo ss
产业 链
execut ed
rom ance
精 度
is ers
更好 地
mat rix
brow sing
m im
电 气
co ated
j ury
str y
decor ated
股 价
ang les
不 可能
园 林
消 失
prom otions
magaz ines
figh ters
全 新的
这 就是
198 3
independ ently
不 够
消 除
log ically
prof ound
reflect ed
qu art
... [
少 女
报 价
立 足
19 30
cal cium
profit able
charlot te
" ,"
快 捷
还 会
man ages
学校 的
j pg
监 察
at ar
certific ates
提 到
有 多
水 果
je ans
ret ention
adap ted
inquir y
w itch
ver ified
und ers
9 78
以 便
威 胁
to kyo
pe an
valent ine
quis ite
副 书记
队 员
數 據
deli ber
nic he
le ans
n ash
国 防
on ions
bre wer
adjust ments
s ive
山东 省
轴 承
con ve
ail s
aband oned
2 30
l isa
创 办
ch im
数据 显示
coun ting
check out
件 事
放 心
not ch
bund le
旅 客
品牌 的
下 一
失 去
en velo
de ter
ile y
prest igious
cosme tic
前 景
种 子
relax ation
6 年
旨 在
舞 蹈
re stored
limit ation
健 全
har vard
educ ate
merch ant
juris diction
强 大
ster ling
execut e
s ic
敏 感
转 让
be ings
assign ments
走 了
ne ath
install ations
南 北
單 位
政 协
公 民
ag ers
top ped
sav es
fundra ising
y ach
ind ul
tan ks
全 程
week ends
trans fers
puzz le
switzer land
occup ied
卓 越
in th
architect s
gon na
infect ions
ev es
cor rection
ash ed
n h
万 平方米
re cre
trad ers
reach es
w d
期 刊
產 業
好 评
ali en
人 和
is sa
free ly
生产 的
alternative ly
cen sus
de bris
ut ah
des criptions
count ies
传感 器
travel ers
assess ments
」 。
公 示
污 水
n n
kill er
公 务
licens ing
r m
bor ne
cir culation
最近 的
x box
我 在
首 席
concent rate
必 須
in qu
act ress
s ions
condition er
remember ed
我 就
don ated
新华 社
清 华
中国 特色
contr ary
真 是
hor n
ingred ient
gre gate
moun ting
》 ：“
中 新
应用 于
r ass
发 育
ar ising
ar ios
出现 了
初 心
后 期
ou tr
em bro
一 边
ur er
情 況
焊 接
bl in
w es
传 媒
发 票
消 化
be ts
tur bo
behavior al
improv es
habit at
三 星
應 用
組 織
高 压
head er
fer til
教育 的
t c
证 据
11 1
crim es
indu ced
intrig u
大 数据
rid ers
saf er
摄 像
here in
domin ant
以 此
sun shine
launch ing
critic ism
颗 粒
an te
vitam ins
n z
metr ics
合 并
通 用
cle ve
b ia
抓 住
dis charge
complic ations
获 奖
ment ed
sal on
phys io
车 的
jour n
下 跌
ag on
negoti ations
p ins
cu ba
设计 师
blog ger
refresh ing
l ending
by e
contro vers
har mony
position ed
metal s
reject ed
tobac co
j ab
度 假
con du
activ ate
broad er
水 利
pick up
evol ved
不 過
perspect ives
大 批
的 有
台 北
无 疑
on ds
product ions
起 來
at us
平 时
way ne
分别 为
sket ch
al ber
ad m
arch ae
句 话
防 火
el astic
为 大家
標 準
com promise
tradition ally
激 发
ter rain
19 75
现在 的
occasion al
sc ary
revis ed
浪 漫
网 易
血 液
te ous
wed dings
sle eve
仅 仅
发布 的
2 70
attach ment
horizon tal
exp end
met res
luck ily
教 室
uk raine
consecut ive
f p
组 建
ar o
po em
me ga
constitution al
很 少
斗 争
eco system
1999 年
how ard
pup ils
observ ations
外 资
far mer
w ang
or land
四 大
消 耗
as sumed
surround ings
人 都
brook lyn
搭 建
最 初
m ens
alab ama
o id
light ly
avoid ing
daugh ters
dram atically
strict ly
depos its
ham ilton
9 th
b ind
回 应
therap ist
ac ne
off line
watch es
?? ?
相 似
not able
29 日
target ing
transform ed
bak er
dissert ation
ane an
du ck
under neath
21 日
两 次
enh ancing
解 決
connect s
buff alo
讲 座
he x
catal y
t iger
东 莞
内 涵
發 生
14 日
lam b
格 兰
se aled
sp ine
later al
pean ut
it udes
clust er
dist ress
信息 的
人 事
” ；
助 于
留 学
记 得
所 属
级 的
g ust
6 50
num er
museum s
坚 定
ner ve
haw k
b ren
水 的
indic ators
a 股
i ates
付 款
大 地
br ist
th ouse
竞争 力
c ence
規 定
體 驗
cleve land
h int
cylind er
recre ational
和 服务
扩 展
的 形式
r ss
龙 头
ge e
事实 上
methodo logy
信 誉
jenn ifer
" "
b acking
資 源
pray ers
t is
schem es
subst ances
3 日
两 国
價 格
plain tiff
soon er
ic op
lon a
电视 剧
in jection
ar ctic
thank ful
一 份
为 此
据 了解
ast on
初 中
inflam mation
行 程
引 入
演 唱
sell s
upgrad es
techn ician
domain s
proceed s
披 露
fe ather
brea the
m are
cir cular
助 理
时 时
ch il
understand s
e str
全 年
bar ce
区块 链
p ads
份 额
照 明
畜 牧
compet ent
bol t
诸 多
gl am
23 日
explain ing
经销 商
妇 女
南 方
ve gg
con sume
chain s
不得 不
p vc
hy gi
ar sen
bus es
camp s
买 卖
17 日
一体 化
認 為
cli ps
作 战
key word
rid ic
flav our
延 伸
susp ended
pre limin
sp ice
pron oun
他 是
vol at
sc am
reward ing
选 用
achieve ments
ide ally
her d
altern ate
t as
处 置
运 作
第 七
同时 也
syn c
篮 球
chi ro
中 药
scen arios
2 日
w c
fest ivals
just in
test ament
批 评
税 务
semin ar
upd ating
fe ars
prev ents
达 成
thr ive
wash ed
draw s
事业 单位
m ack
诉 讼
encour ages
开 设
货 物
im men
活动 中
这 也是
龙 江
deal ers
创始 人
郑 州
) ?
生 育
cor ps
config ured
条 款
tim ore
py thon
临 时
建 材
ic ons
celebr ity
可 持续
骨 干
发 明
接 待
fr act
moment um
perce ived
orche stra
acry lic
率 先
ij ing
成为 了
全 县
的 效果
地 區
工作 者
lu gg
bel le
peo ples
al es
ed in
cr ust
昨 天
bit ter
download s
adap ter
提高 了
了解 到
河南 省
partial ly
barce lona
反 馈
sen ator
exam ined
bur ied
stol en
接 着
am ple
so viet
马 上
as sure
tal es
不 忘
回 复
immen se
d ys
not ion
pol ished
linked in
说 道
cross ed
consist ing
neg lig
om ic
ok es
bac on
tong ue
ad mir
por ch
hu gh
ense m
k ate
农 产品
协 作
as c
sh ing
free ze
occur ring
y og
pt ions
connect or
brid ges
anony mous
房 产
de t
char lie
parame ter
。 （
二 级
全 世界
promo ted
boil er
ar om
be ijing
smart phones
rac ial
w u
擁 有
要 素
输 送
er ie
re venues
perform s
e ze
ro cket
consequ ently
n asty
run ners
ange ls
点 的
cor al
rain bow
surv ived
一 同
el le
vo y
涵 盖
stream s
out reach
197 4
south west
innov ations
平 米
tun nel
新能源 汽车
师范 大学
du b
place holder
attr action
to k
log ged
不 起
mid night
fi xtures
中 大奖
快 的
ap ples
pit ts
c ited
g c
建 議
bro kers
tu ition
天 地
抑 制
有 可能
li o
dry ing
republic ans
f ought
g mail
to wel
r ar
不 需要
报 记者
持 有
thr illed
har ness
curtain s
me tric
sco w
tum or
剧 情
ug al
的 关键
re bound
ref use
b ail
扮 演
in ar
合作 伙伴
的 生产
反 而
另 一个
收 取
签 约
ho bby
ff y
furn ish
fl ed
analy sts
增加 了
cir cles
fle e
活 跃
这 两
clear ance
seven th
p b
igh ter
10 3
上 去
in als
ver ification
trans late
mechan ics
diam onds
婚 姻
海 军
lon gest
theoret ical
6 000
紧 密
ed e
gr im
pre ad
sustain ed
】， 【
prelimin ary
于 一
户 居住
part ly
auto mobile
主 流
域 名
je well
az a
s cru
防 护
el li
gor don
defe ated
tribut e
、 “
am ate
w rest
为 何
ag en
du o
kind er
伟 大
assess ed
秘书 长
vir al
educ ators
metab ol
с т
is bn
class ification
smooth ly
1 18
comb inations
ox id
n our
发 射
西 亚
ad i
des ires
24 日
主 场
纯 收入
00 1
cap s
us able
bal timore
ce me
ser y
embodim ent
stup id
恐 怖
温 馨
10 7
propriet ary
的 老
in ct
ent ed
eng er
hum or
str ings
pul se
未 来的
al y
christ op
cathe dr
济 南
maintain s
align ment
scient ist
t wee
es cap
up set
law suit
17 th
anal og
ya hoo
nas a
受 损
購 買
越 南
fl esh
iss ip
vo id
explo red
tor n
k ok
电 缆
活 性
civ ic
ó n
复 制
fin als
玩 法
advoc acy
glu co
embro ider
pic nic
album s
简单 的
与 此
新 生
mad ison
z im
反 复
的 支持
ar thur
div ide
cro s
税 收
se ment
distribut e
clou ds
mail ing
198 2
approach ing
sp ider
bed ding
spir its
指 示
看 见
设计 的
竞 技
barbar a
11 th
publish ers
b d
o ke
尽 快
标 签
thr ill
k t
选 手
sh ang
stress ed
assem bled
antib io
or leans
制造 业
specific ation
surpr ises
spons ors
wides pread
过 了
miss issip
reser v
orland o
mob il
rus sell
v ista
qu ilt
bl ur
good ness
pred icted
dele ted
photo shop
deal t
discipl inary
别 墅
尼 亚
recogn ised
为您 提供
acou stic
不 及
也 将
给 你
no ble
cr unch
resp ir
tai wan
.. ."
moist ur
钱 中大奖
高 层
os is
exc use
es a
do i
r ud
一 线
整 治
16 th
learn ers
emer ged
enthusi asm
un comfortable
over head
cont amin
bur ger
cro ps
t ac
oppon ent
激 励
: )
透 過
ten ant
ext ensions
爆 炸
处 的
war ned
pursu ing
l ung
gr af
s add
主 编
短 信
连 锁
hy dra
quant um
colon ial
土 木
gl en
suggest ing
.... ..
revolution ary
medit err
m v
經 營
pc s
investig ations
phenomen on
男 女
affil iated
常 规
vi able
1998 年
二 次
好 友
花 少
co 2
業 務
brow s
background s
ceme tery
形 状
vol can
dil ig
prompt ly
來 的
pass port
mess aging
蛋白 质
par a
多 名
off set
en compass
19 日
s ant
起 到
caf é
: :
常 委
这 时
le ap
ic ut
bad ly
submit ting
f ier
te as
浙江 省
n and
单 元
round ed
uncertain ty
g ib
成 效
ho se
br ave
ik i
algorith ms
ble ed
stim ul
chiro pract
. ),
r ider
ar row
ur gent
cli m
termin ation
optim ize
19 40
remind s
d h
qual ification
carri ers
an ia
fe ver
能 夠
bb q
那 样
ag gregate
arr iving
专 科
進 入
我们 在
发 电
自 律
un wanted
chap el
不 一样
子 公司
命 运
县 城
损 害
mar g
newsp apers
喜 歡
太 多
spo on
天 天
谷 歌
迎 来
laugh ter
小 型
得 知
for got
ant iox
cost a
prior it
fif ty
rhyth m
g ill
浓 度
no d
not ified
h atch
真 空
challeng ed
激 情
質 量
sh y
ist er
analys es
nur sery
mississip pi
让 他
ward robe
pres cribed
should ers
editor ial
丈 夫
备 案
appe als
dim in
liter acy
poly mer
ا ل
創 新
30 pm
的人 生
rock y
datab ases
各 種
子 女
秩 序
茶 叶
plic ity
compress ion
每 个人
覺 得
iz ers
inv iting
厨 房
學 校
窗 口
k ol
回 忆
av an
prom otes
花少 钱中大奖
曾 在
留 在
log ging
threat ening
withdraw al
西 藏
occup ation
foun tain
不 出
lin en
behavi ors
abund ance
主 人
接 到
ac credited
mo scow
g aps
几 天
應 該
19 68
prop ag
antiox id
銷 售
cr um
search es
d é
upgrad ed
百 万
祖 国
sched ules
一 等奖
北 方
直 径
说 法
so dium
繼 續
ho ver
acade m
chi at
assa ult
k le
引起 的
pum ps
背 后
comm ands
step ped
shif ting
spat ial
ad ams
电 流
var ian
j ona
機 構
占地 面积
职 能
还 没有
阿 拉
b ib
之 处
住 宿
per fection
ling ton
qual ifications
pix els
b locking
客 人
ic he
str on
den se
sac ram
figh ter
hel icop
bes ide
embr ac
mediterr anean
j p
回 归
por tray
comp ounds
pre mi
turk ish
p and
就 算
it unes
par ade
indic ation
j el
var ies
m ck
正 规
off shore
is ons
mar ie
join ts
ox ide
又 是
pro li
pol and
许可 证
regre t
如 下
sea food
rib bon
​ ​
sy rup
house holds
国家 和
super vision
人均 纯收入
的 关系
ho ped
的 世界
ex otic
photograph ers
u li
13 th
se wing
ro g
cha os
柴 油
℃ ，
十 六
同 事
强 烈
ur t
stur dy
fe ld
igno red
p ills
精 英
se gments
wh ist
: -
s id
报 警
继 承
declin ed
密 码
di ver
consider ably
warm th
supervis or
的 游戏
的 应用
law rence
minor ity
enroll ment
三 包
依 旧
差 距
or o
co ordination
defin ing
从 此
官 员
特 定
connect icut
intermed iate
r p
195 8
c ze
估 计
沈 阳
绘 画
su e
mo dest
jum ping
實 現
ro gen
ir rit
med ie
cap su
jona than
线 下
客户 的
造成 的
evalu ated
bless ing
c ables
s b
be es
brand ed
journal ists
是 非常
航 天
need le
bas es
resor ts
乃 至
re porter
journal ist
metro politan
一 张
贵 的
gr ah
du ke
pay day
雖 然
wi ki
gr ac
thom pson
commod ity
现 任
h ier
k night
v at
的 核心
编 码
wo re
stri kes
encounter ed
太阳 能
温 暖
st ev
download ing
hon our
med ian
review ing
anim ated
sched uling
refin ed
? )
补 偿
首 都
psy chiat
养 生
腐 蚀
st ats
crit ics
水 量
lin king
protect s
别 的
地 震
sin cere
transl ated
优 点
出 现在
com po
rad ar
fair y
st iff
me lo
um bre
sel s
bicy cle
e ther
创 立
le f
tact ics
balcon y
哪 个
hun g
bree ze
全 國
四 年
用 了
con tem
ar thr
strugg les
景 点
的 作品
跟 着
wal mart
bur st
recycl ed
. '
d amp
对 照
she er
ys ide
predict able
h ilar
整 改
substantial ly
fl ick
经济 学
imper ial
在 校
并 将
sun light
glo ves
h ul
发 起
理 工
plan es
rober ts
be ats
ab ul
aw ak
病 的
轨 道
kr ist
script ure
f use
13 5
cast ing
场 地
心 情
暴 力
锻 炼
h g
党 支部
几 十
昨 日
淘 汰
黑 龙江
sh aft
give away
infect ed
g our
夏 季
好 好
il o
landscap ing
distingu ished
哈 尔
re pos
工作 中
name ly
其 實
有 个
高 峰
administr ators
nev ada
c ss
k um
导 向
st akes
pup py
privile ge
medie val
仅 供
等 人
能 在
the ories
reserv ations
e b
y n
等 的
account ability
influ ences
jac ob
地 板
歡 迎
清 理
申 請
un employment
全 身
审 计
10 80
改革 开放
定 了
delay ed
内 蒙古
本 来
fat igue
分 公司
analy zed
colum ns
4 80
为 止
ren ting
par ker
mer cy
197 7
re im
lo om
x ia
aut ism
痛 苦
terr ific
champion ships
ad her
su la
br ut
彼 此
import ed
appro x
aa a
bout ique
r ors
纳 入
re ign
le st
are l
ed itors
re modeling
che ll
14 th
medic ines
convenient ly
批 发
un ting
总 面积
难 度
diction ary
都 很
seam less
embar rass
》 、
中 美
sk irt
华 人
无 需
的 多
看 了
ol as
attr acted
fif teen
gr ie
enroll ed
净 化
灌 溉
還 有
so cks
free zer
cric ket
k han
救 援
plat inum
indic ating
据 悉
con do
special izes
advis ors
克 斯
平 稳
un ve
finan ces
; &#
access ibility
nel son
man s
pract ically
“ 】【
一 生
it i
li ms
what s
成 品
有关 部门
surge on
de tox
198 1
早 在
31 日
带来 了
ken ned
approach ed
s mar
gu ild
的 教育
ro pe
ome ter
develop s
ming ham
renew al
富 有
大 连
戏 剧
ren al
为 中国
的 行为
cr an
christop her
ch ill
mo th
ren a
cin nam
nom inated
c ules
m ultim
内 地
在 我
管理 的
平 面
气 象
travel ed
pen ny
生态 环境
metall ic
/ .
以 往
任 意
频 率
ot to
inv it
novel s
discrim ination
cathedr al
el a
标准 化
illustr ation
h amp
str ips
bapt ist
e ternal
一 项
单 独
携 手
生 涯
瞬 间
myster ious
文 献
能 否
ru bb
集团 公司
mal ware
sw ap
ambass ador
其 余
敌 人
la ura
ran kings
sp icy
立 法
電 影
nutrition al
louis iana
dipl oma
contact ing
的 学生
diet ary
布 置
维 权
pro cure
ty ping
r ul
負 責
推 薦
的 功能
might y
guarante es
t us
基 部
有 序
gall eries
wik ip
一 樣
的 特点
rel atives
conf using
brief ly
deser ves
ch et
fat al
cush ions
佛 教
都 没有
st even
ac a
ele ven
argu ed
burn s
elev ated
ur ge
contin ental
for ty
me mo
controvers ial
向 上
国 土
mir rors
explor er
afghan istan
登 陆
ish es
hun ger
成功 的
对 话
2 80
： 《
re el
ut ilities
music ian
仔 细
新 鲜
curren cies
remed y
tr io
co d
l ite
р о
遭 遇
go ds
19 00
bir mingham
更 大
concer ts
人 心
完善 的
po inter
发 放
和 发展
im posed
产品 质量
obs ess
或 其他
mat ory
rele asing
record ings
repeated ly
新 建
物 料
线 的
跟 踪
mum bai
hurric ane
感 受到
inf ant
m k
朝 鲜
wo ven
dat ase
dol ph
frank lin
vine gar
kenned y
nor way
syn thesis
ro ger
19 65
ot ta
kid ney
r uled
小 心
en cry
journal ism
membr ane
不 太
大 全
爱 国
be ating
mo ck
l cd
can t
一 片
怎么 样
ab u
高速 公路
5 20
v iv
inform al
found ations
用户 的
明显 的
开 了
2 人
被 告
ig o
20 世纪
send s
d io
jer ry
對 於
po pe
19 69
cho lester
cream y
红 包
sour ced
bam boo
古 典
地 域
dis rupt
) -
i pod
外 科
trick y
最 新的
返 回
qu iz
fl ame
sil icon
illustr ations
局 部
廣 告
car b
under taking
pertain ing
k or
t issues
影 像
preser vation
难 题
s ag
第 2
ill ion
sim pler
bul b
i aries
使 其
quarter ly
四 季
歌 手
空 間
匹 配
还 将
align ed
journ als
之 日起
肌 肤
com ics
discover ing
terr itor
切 割
in ver
ap pra
deploy ed
完整 的
陷 入
add y
quo ted
n ad
地 处
經 驗
高 兴
incent ives
pend ant
ch un
sty ling
refer ral
grand mother
三 是
界 的
肌 肉
股 市
ce t
el abor
社会 的
2 60
z omb
给 大家
夫 妻
ch u
pl ast
bo red
gen ius
fro st
anno ying
ifi able
期 限
su ff
ten ants
jer usal
prob ability
athle te
as ser
be ast
la zy
开发 区
之 後
账 号
absor b
2 25
b ast
分 泌
工 会
电 梯
ken ya
character istic
conver ter
wikip edia
jerusal em
坐 在
dev il
巴 西
手 機
承 认
pr one
sp reading
met ap
許 多
care gi
access ing
н а
户 通
损 伤
民 生
bel g
中共 中央
z es
汉 族
其中 有
1992 年
p ending
im plant
light ning
fix ing
satisfy ing
oppon ents
r ous
移 民
necess ity
in correct
op y
的 过程中
car p
17 5
6 个
w t
源 于
ne pal
四川 省
开 幕
燃 烧
追 究
cre ep
demonstr ates
下 滑
说 话
lim iting
宇 宙
算 法
blog gers
sculpt ure
research er
clud ing
立 刻
第 1
am ino
wh ol
pro xy
替 代
land ed
del ays
mer cur
j ama
in aug
min is
h end
看 起来
ter ry
har bour
实 习
指 南
涨 幅
frustr ating
视 野
城市 的
grah am
f ond
j ere
o ts
pe as
ep a
年轻 人
s word
u gu
earth qu
数 十
br ic
town ship
inspir ational
prohib ited
e quality
cle ared
engine ered
geo graphic
山 水
签 署
en quir
lect ures
ext ending
23 3
cir cul
constit u
遗 产
sub ur
ste al
assist ing
batt les
購 物
不 开
到 来
回 报
总 额
未 能
運 動
al ice
str and
12 1
blan ket
立 方
加 以
早 已
二 人
二 等奖
保 證
銀 行
ch uck
lay ing
de grad
保 养
生 理
touch es
存在 的
亲 自
姐 姐
有 哪些
这 类
demonstr ation
h vac
口 碑
inc idents
threat ened
alter ed
可 达
动 漫
招 标
新 兴
模 具
id o
project ed
firm ly
k aren
no where
comp iled
rel ay
l r
10 9
pan or
挑 选
bever age
不 敢
客 观
st a
vir uses
buf fer
ambit ious
遵 循
了 很多
命 令
sim plicity
clear ing
食品 安全
defend ant
practition er
obst acles
演 讲
bel ly
touch ed
evol ving
女 生
目 录
纺 织
远 程
im o
优秀 的
1997 年
有 關
bud s
reported ly
运营 商
subscrib ers
依 照
质 保
fre ight
天然 气
" >
w en
使用 者
stress ful
phr ases
scare d
f b
希 腊
li b
position ing
qual ifying
modific ation
5 50
h k
l acking
前 列
积 分
书 中
爆 发
的 长
辉 煌
th е
万 美元
這 種
� �
wi res
min s
cinnam on
之 际
中国 共产党
amp a
distin ction
作 了
家 中
给 我
al together
ext ends
terror ism
infin ite
依 赖
总 理
投 票
ch ess
+ +
坚 决
wr ist
扫 描
confl icts
两 岸
se an
ru gs
rot ation
hydra ul
关 闭
只 需
lu sh
sp ices
19 64
pass ive
exist ed
comment ary
湖南 省
cooper ative
團 隊
用 水
约 为
移动 电话
分 辨
wonder ed
declar ation
iz ations
rel ates
mix er
cur ios
compli ant
mathemat ical
无 数
纠 纷
po on
关 联
要 有
视 为
live ly
elig ibility
р а
so da
dr illing
本网 书面授权
f en
j in
天 使
聚 焦
syn chron
债 务
助 力
等 问题
em ma
燃 料
restr ict
w ages
is y
tr am
gree ting
landscap es
增 值
电 磁
自 動
ced ar
invas ive
appre nt
ca a
的 教学
这 部
dist ant
research ing
z el
н и
欧 美
gro o
immig rants
kir k
incent ive
arthr itis
来 电
校 区
to ken
de vi
liver pool
g ol
响 应
proud ly
es cal
cons en
技术 人员
镜 头
cr m
inter ventions
initi ated
外 部
or ch
enc er
cholester ol
经济 总收入
认 知
19 67
比 分
液 压
着 力
bon uses
sil ly
~ ~
》 (
队 的
dis ast
und ou
war ren
ug ly
warrant ies
提 出的
saf ari
compet itions
一 度
前 期
am bi
describ ing
domin ated
进 攻
fin es
kind ness
neighborhood s
discipl ines
compr ised
不 斷
get ic
show ers
世界 的
mad rid
perman ently
premi ere
mus lims
dis close
nat al
disput es
m ma
基础 上
aar on
her b
精 密
bo ast
bell a
: "
基 礎
每 月
be ads
均 有
arr ives
glo ss
retail er
quant ities
c ms
顯 示
ph ony
inflam matory
man hatt
du blin
explo res
grand father
p f
bl ades
col lapse
less er
dou glas
组织 的
elimin ating
两 大
产 值
重 复
re ll
行 為
bro ch
上 班
lind a
专注 于
公 主
bre x
stor ms
clin ics
e h
g is
大 战
让 您
25 00
tour ing
一直 在
信用 卡
plas ma
un cle
ul ator
um atic
属 性
细 菌
re model
99 9
实 的
需要 的
售后 服务
为 中心
缓 解
dish washer
do ctr
cat tle
开展 了
heim er
借 助
blo wn
生 成
not ifications
藝 術
遗 址
.. ...
dra wer
manhatt an
m our
н о
参 赛
的 目的
研究 员
农民 人均纯收入
折 叠
sup press
in test
ome ga
lic ence
带 有
belg ium
s age
sp inal
reg ener
spot ted
cancell ation
比 亚
的 相关
的 过程
thank fully
progress ion
来自 于
shif ts
旗 舰
discuss es
in habit
tr ium
happ ily
refuge es
语 音
ex changes
arab ia
swed ish
个 体
场 的
姓 名
no od
app ar
公司 在
品 質
若 干
quick er
advoc ates
奉 献
il er
share holders
却 是
热 门
fr y
cent ric
cust ody
c ache
傳 統
arbit r
shang hai
五 个
可 用
he el
ag ile
od or
mar in
一 款
不 易
sam pling
的 时
last s
gg le
coll ins
scholar ships
techn ically
的一 切
前 来
市 长
ther mo
bas in
一 部
巡 视
的 感觉
豪 华
her bal
instru mental
render ed
dod ge
pitts burgh
摩 托
ven e
综合 性
dak ota
par as
建设 的
appropr iately
undou bted
un to
reg im
sc enery
i op
平 臺
举 报
评 审
char ger
delight ful
钢 铁
pal ette
hid ing
我們 的
体 会
多 项
派 出
的 机会
boy friend
in line
ce il
instruct ors
h ing
q i
sh allow
i po
的 原则
联 通
fe ast
defect s
工 業
罗 马
tt i
bi bl
yar n
打 算
林 地
as is
out lined
some time
finan cially
局 面
显 然
ch else
prof ic
broad band
influ ential
extr action
peak s
很 容易
gr ind
modific ations
ater al
大 于
年 底
amaz ed
s v
以 外
橡 胶
de bit
cost umes
shut tle
e commerce
cl ut
cul inary
burn ed
roast ed
年 前
pro long
19 45
11 4
mur ray
belong s
comm ons
pat ches
科学 技术
第 八
mind set
ba idu
发生 了
jum ped
一 只
巴 巴
neck lace
b eng
票 房
私 人
节 奏
ar u
hol low
举 措
笔 记
dis closed
play ground
wish ing
commission ed
出 资
judic ial
搅 拌
的 全
wo o
3 30
扩 张
ad oles
compr ising
hydro gen
第二 次
fat ty
本 质
面 试
can s
car ter
appro ve
mod ular
rein force
之 所以
gh z
mortal ity
制 的
re covered
se vent
convin ce
常 用
情 节
不 停
场 比赛
， 「
grand children
cla use
f 1
癌 症
vent ures
cali br
侵 权
sp ins
結 果
coun tr
character ized
optim ized
victor ian
n hs
知 識
不仅 仅
s lower
编 程
listen ed
关 节
imp lied
collabor ate
十 四
for given
trad ed
h ats
l oft
生 日
统 筹
fe l
cis co
edin burgh
rich mond
furn ished
197 6
大 规模
科学 家
d ino
u pr
感 动
me g
imag ined
rou lette
s as
为 核心
tr act
sof ten
coll ision
pione er
自 助
陆 续
ro e
co x
ink s
begin ners
garden ing
零 部件
ear liest
last ly
path way
1980 s
testim ony
再 度
受 伤
旋 转
wi red
histor ically
sal vation
consen sus
等 多种
al bert
7 20
茅 台
象 征
防 范
ho g
lor ds
grat itude
中国特色 社会主义
我 觉得
br ig
scan ning
农 田
de x
em ily
江 南
po ems
black jack
r n
变 形
意 的
amp s
初 期
ab ra
con figure
che e
fil tr
maj est
enn ial
民 国
空 中
mar c
don ors
mu f
strugg led
volunt ary
保 温
评 选
tr aged
dash board
三 分
元 的
技术 和
的 空间
mar shall
充 电
实 质
寻 求
的 光
____ ____
jewell ery
原 油
有 望
降 温
min es
green house
thre w
penc il
no ld
bot an
pe ters
qu in
19 49
bud dy
fo il
ban ana
recru iting
志愿 者
consolid ation
担 保
lo o
争 议
坐 落
职 称
sle ek
程度 上
arbit ration
, ’
as i
scen ic
rach el
为 人
排 行
真 人
compar ative
与此 同时
ho listic
comfort ably
历史 上
terror ist
k l
s cripts
19 66
國 內
的 海
tail or
a then
全 书
在 国内
幫 助
ach ing
pur suit
hold ings
undoubted ly
煤 炭
beat en
主管 部门
consequ ence
aler ts
看 出
camp bell
mark ers
c to
在 一个
會 議
contin ent
har ass
nov a
期 望
faith ful
… ..
慢 性
加 密
合 物
per ipher
so ak
select ions
的大 型
券 商
penal ties
jim my
timel ine
proxim ity
h ort
情 形
we ights
co ve
fo g
tro phy
calcul ator
shor ts
m hz
栏 目
热 水
ho e
supply ing
authentic ation
gur u
♀♀♀♀ ♀♀
致 的
wr ink
排 水
较 高的
jo ke
道路 为
的 学习
fe min
plan ner
tub es
mar it
app 下载
investig ating
attack ed
consu med
也 不会
延 长
的 选择
19 62
over looking
ep s
16 00
answer ing
pac ket
rig id
g io
sh an
glim pse
. :
的 社会
bal let
blo ss
acknowled ged
mercur y
u ct
ro ses
pl aza
vis ually
ped iatric
chelse a
作 风
而 已
ab er
d well
e in
疼 痛
show cas
', '
亏 损
電 腦
sm alle
special ize
apo st
l iness
poor ly
adhes ive
聚 集
这 项
om er
拿 到
民 众
林 果
ac on
me lan
smalle st
承 受
类 的
en lighten
发 病
立 体
領 域
h ir
in sula
paren ting
doctor al
incorpor ating
未 來
to w
sh iny
发展 趋势
时时 彩
reim bur
ced es
两 位
ex quisite
attribut e
r ical
我 要
ro bots
am o
d ign
南 部
婴 儿
录 取
教 程
遭 到
de co
仪 表
the ning
compat ibility
carto on
ensem ble
bloss om
< /
d l
11 3
成立 了
f au
trad er
den y
充分 发挥
treas ury
采访 时
basel ine
l ent
市 级
有 没有
水 中
那 种
al loy
ur i
pe e
小 孩
建 于
的 后
tr ag
dr one
一带 一路
区 内
tr ibe
智能 手机
s ang
countr yside
電 話
pu er
switch es
姑 娘
me ado
ike a
command er
的 文化
real m
access ory
analy tical
accommod ations
不 利
法 治
av oc
19 63
trans plant
bar ry
农户 数
合 资
老 師
ant enna
暂 时
波 动
fi xture
教 學
aw k
排 列
pe ach
co inc
negot iate
见 到
主要 以
veget arian
也 没
情 的
门 户
tit ude
ceil ings
繁 荣
j ah
不 上
同 年
pay roll
concent rated
抗 日
解 析
marke ters
sam uel
crypto currency
l ions
但 不
宁 波
teen th
cardio vascular
一 座
有 助于
le ep
fer ry
ste wart
sent ences
规定 的
inno cent
p ud
懂 得
determin es
reput able
buf fet
导 航
架 构
用 地
gu es
let t
cu be
gover ning
br us
grap e
sher iff
k ap
作 文
lif ted
compo ser
a quar
夏 天
col oured
hum ble
8 000
内 存
图 案
可以 通过
curios ity
sh red
mo squ
t ors
男 孩
解 读
mark er
标准 的
crow ded
党委 书记
t p
all ah
bl ings
cur ry
thread s
常见 的
categor ized
o st
的 可能
ct u
favor able
protocol s
, .
北 部
in visible
ab sent
aw ful
及 其他
注 入
人民 法院
拥有 移动电话
gian ts
延 续
永 久
部 門
re ck
ta ges
ser um
credential s
明 天
监 会
r of
凝 聚
是 很
cl am
environment ally
pen insula
假 如
节 日
gr asp
br un
path y
农民 收入
predict ions
名 人
商 店
hon ors
艺术 家
bor o
早 上
精 选
so ever
palestin ian
充 足
换 货
year ly
meant ime
u ity
民 警
的 环境
血 压
遊 戲
mo ham
te t
can e
phas es
gart en
争 取
司 机
附 属
ru th
j d
s ier
s ights
box ing
provin cial
1 人
液 体
to l
ir rig
tr action
like lihood
ep ide
post ers
administ ered
n inten
设 定
tr um
一 人
佛 山
就 不
题 材
ra z
体现 了
constrain ts
新 京
in valid
lar ry
d up
n iss
眼 前
lad der
l ene
解 除
st arr
evalu ating
wilder ness
步 骤
玩 具
选 举
bal ancing
won ders
lu c
pict ured
constit ute
preser ved
便 于
der iv
一 套
lu ther
已 被
开 心
18 3
并 未
il lo
ment ation
comp let
gl ac
decor ate
供应 链
联 储
sal v
bar be
ban e
修 订
受 益
用 人
贝 尔
in tric
to wels
labe led
testim on
看 到了
ru by
sold ier
nb sp
bibl ical
ninten do
參 加
mat ur
真实 性
博 览
脱 贫
较 低
ine f
sou ls
wealth y
o ste
ash ley
lot tery
aff air
eat en
sain ts
brex it
代 替
接 下来
糖 尿
ob es
persist ent
] [
位 的
纳 税
超 過
ev ans
metabol ism
哥 哥
容 器
支 援
frustr ated
sur fing
mir acle
本 周
领 取
ment ally
agre es
cze ch
一 日
人 家
ra ises
上 网
试 图
comm ence
和 管理
要 在
证 实
ag ne
dis comfort
thro at
sym pos
麻 烦
变 革
数 码
线 城市
veter inary
frustr ation
诗 人
mon s
ster dam
collect ively
length y
** *
desper ate
este em
小 姐
even ly
mit ig
关键 词
apo log
免 費
coordin ate
渗 透
ac ies
sub missions
orig ins
communic ating
michel le
d are
e es
m ould
ac er
pl c
care s
defin es
必要 的
占 据
un ified
原 标题
爱 心
数 控
桥 梁
16 8
fail ures
智能 化
bil ly
correspond ence
百分 点
ad ic
quant itative
美丽 的
intent ions
入 选
年 间
穿 越
click s
- >
1 19
帝 国
达 到了
ped estr
tt es
hol land
switch ed
isol ation
abul ary
參 與
在 新
的 无
的 质量
train ers
第一 时间
paper work
l v
京 东
法 定
gaz e
和 技术
开 通
温 泉
社 保
not ably
loc ating
sent iment
bann ed
复 兴
le ban
perform ers
inevit able
某 种
shop pers
户 外
种 种
进 了
government al
jess ica
d ian
g ence
197 1
frag rance
1996 年
shado ws
replic a
r igh
介 紹
我 公司
there of
sing h
real ise
consider ations
flu sh
respon ds
insul in
aes the
pre sum
equ ation
bound ary
ski ing
hydraul ic
净 利润
头 的
门 口
under take
avo ided
bio graphy
tempor arily
wiz ard
k az
变 更
gram mar
之 地
华 夏
work flow
str at
ele vation
r pm
两 侧
节 约
hy p
fest ive
investig ated
disci ples
m x
重 组
revel ation
u no
實 際
back pack
break down
sk ir
音 樂
co il
cal culation
touch ing
越来越 多
de ment
合 肥
essential s
anticip ate
河北 省
贯彻 落实
少 的
sh in
gr ief
recip ients
是 我们
comp art
企业 和
小 朋友
歷 史
velo city
tend ency
服 饰
激 烈
通 报
en z
wh ir
pro pe
一 行
担 当
網 絡
am sterdam
abund ant
laure n
d ns
水 分
un ions
dr ip
中华 民族
foss il
l us
char itable
数字 化
学 的
欧 盟
plug ins
horr ible
垂 直
这 也
bas il
设备 的
toler ance
as a
pack aged
medic aid
游 泳
be it
valid ation
该村 到
o em
媒 體
安全 的
东 京
在 他
基 督
宏 观
or bit
ed a
wor ries
op a
为 基础
主 演
boun ce
r ons
一 件
心 灵
ke ith
阐 述
bad ge
s nor
手 游
线 索
负 担
humid ity
line up
display ing
友 好
的 最
ju an
stick y
gluco se
v ivid
he els
stor ing
appear ances
quart z
al z
path ways
thr u
c age
居 然
弟 子
权 力
沙 特
ch ile
old s
ship ment
30 th
lugg age
f bi
fre y
todd ler
defic it
嫌 疑
的 身
的 风
精 力
mo z
respond ents
d les
br y
重要 的是
优 越
极 为
热 爱
的 经营
ce ls
cre ations
ator ies
austr ia
马克 思
e ign
擅 长
故 意
每 一位
dis counted
econom ical
account able
大家 都
层 面
心 脏
st ating
don or
科 學
step ping
tur b
recommend s
采用 了
trium ph
: #
之 旅
十 七
夫 人
尼 斯
持 續
苏 联
t ide
样 子
ak h
system atic
soc ieties
celebr ations
simpli fy
決 定
”， “
res in
co ven
fo cal
feed s
的 结果
att itudes
secur ing
emer ge
1970 s
g om
占 有
谈 判
the d
class ics
flu x
collect or
2 12
expect s
begin ner
水平 的
房 价
ne il
告诉 记者
mon itors
dos age
全 民
at ics
ch ry
pres chool
mit chell
thought ful
干 扰
witness ed
r asp
排 除
舒 服
ul ative
go w
ener getic
stuff ed
ut ers
happ ier
sover eign
cor rid
可以 说
kitch ens
viol ations
一 支
常 年
20 22
dou b
bes poke
f id
u h
多 媒体
聊 天
】【 ”
mar ina
lic enses
t ou
拉 斯
log an
运动 员
amate ur
2 a
war mer
25 th
aud itor
能力 的
中 部
以 免
說 明
an cies
me tic
not ing
sa x
cor on
render ing
2 90
w au
冷 却
鸡 蛋
well being
positive ly
broad way
s no
可 供
总 局
le vit
com memor
counter tops
evol ve
deb ts
affil iates
suspect ed
爱好 者
发 作
在 内的
ra j
不 变
16 5
ank le
cancell ed
司 令
ver bal
ick s
pot ent
advance ment
丛 书
本 土
誉 为
timel ess
c co
伦 敦
电 竞
】【 “】【
assem ble
marg aret
的 品牌
commit tees
imag in
197 3
家长 们
z inc
公 正
对 接
港 澳
班 子
input s
obes ity
” ）
附 加
su z
fr amed
bul bs
1990 s
小 時
感 覺
enjoy ment
drum s
f ills
i y
w ander
com fy
soc ket
remed ies
e vers
f us
照 顾
的 变化
给 他
高 新技术
contr ad
adapt ation
bever ages
自 觉
art if
crush ers
bang l
pl un
cho re
crow ds
8 个
受 理
教育 教学
ling u
bud gets
calcul ations
ux e
q a
r na
per ry
管理 和
trade marks
optim um
k oh
委 員
精 确
spir al
m und
东 部
re cur
as leep
ag ger
capt uring
breed ing
火 箭
转 向
re fur
am ar
ul u
pep pers
统 治
season ed
sanct uary
umbre lla
p adding
按 摩
早 餐
pro be
aff le
trigger ed
是 要
cor ros
构 造
美 观
顶 级
11 6
fashion ed
代 谢
玫 瑰
se ys
19 61
交易 所
voc abulary
puer to
v io
三 种
昆 明
潜 力
發 布
in coming
re vision
wa ited
凤 凰
攻 坚
時 代
中国 人
common wealth
y abo
赛 车
im a
dead ly
县 委
手 中
气 的
tim er
ru gged
insect s
破 碎
主要 有
tri angle
citizen ship
o ch
前 进
div isions
chop ped
从 小
價 值
青 海
验 收
to wers
精 细
al b
mon tre
已经 成为
hor mon
内容 的
stain s
concept ual
大 队
对 待
ann ie
d ere
u it
co smo
sens es
发布 了
secure ly
logo s
下 一步
前 面
多 彩
强 制
车 主
cl ue
start ups
mid st
impact ed
therap ies
breath taking
冲 突
fut ures
深 的
band width
furnish ings
涂 料
话 题
al lies
dec ides
dam aging
abo ard
sham poo
热 点
car bo
install er
7 个
gl ance
管理 体系
intern ship
借 款
ign or
inter section
read ings
vocal s
auton om
塑 造
省 市
emotion ally
arsen al
優 惠
分 散
前 沿
renew ed
了 他
机 电
紧 急
ree f
hazard ous
refur b
sh out
scal es
per cept
dis miss
tar iff
mont ana
marit ime
o liver
s lic
per pet
robin son
mush rooms
argent ina
解 答
jo ins
kind ly
mil it
genuine ly
t te
dis card
ba ike
ju lie
rug by
ex cur
prefer ably
y m
汽 車
ie ee
cho ir
tur no
conclus ions
公安 局
yum my
te les
cons iders
investig ators
vacc ine
dement ia
ro ok
de ut
家 用
mon te
econom ies
世界 杯
prec ip
h b
ver n
ass ass
安全 生产
express ions
林 业
谢 谢
件 的
填 写
饲 料
ma z
mar ry
minist ers
exhib its
tutor ials
现 已
con front
距离 最近的
geo graphy
manus cript
气 息
san ctions
cit rus
主 张
mart ial
奥运 会
g f
t ampa
ph ic
197 2
witness es
为主 题
的高 度
加 油
客 场
调 控
safe guard
enthusi asts
1995 年
mo vers
ba h
经济 的
fire fox
后 面
当 事
较 大的
cu ff
po k
arch y
yam天空部落 格
博 客
湖北 省
abor tion
在 上海
sy rian
enthusi astic
感 兴趣
ex ports
条件 下
投 标
oth y
shap ing
flag s
feas ible
不 大
手 工
11 7
gra vel
推 出的
al located
power point
s na
副 主席
首 批
semin ars
procure ment
s ided
u ae
sil ic
gall on
jer seys
特色 的
ap a
fr ight
author ization
bench mark
h ed
决 心
課 程
st ub
sco op
streng thening
rail road
总 量
联 邦
企业 家
anx ious
bath s
保险 公司
入 住
既 然
焦 点
del uxe
25 6
encourage ment
再 加上
inspect or
b ump
外 包
并 对
首 届
reflect ing
宝 贝
经济 林果
专业 从事
stick ers
exhib itions
poly ester
christian ity
导 弹
te k
introdu ces
resol utions
去 世
195 9
pure ly
a 1
no des
la h
b2 b
仿 佛
新 一
饮 料
col omb
mer cedes
found ers
foot print
k un
人 人
的 位置
de mol
可 谓
悠 久
sim mer
respir atory
才 会
古 老
機 會
选 5
spr int
d ye
历 程
最 重要的
vis ions
来看 看
c ay
k not
” ).
为 其
跨 越
品 的
地 说
om o
ud ge
home owner
rot ary
colum bus
3 10
叶 片
在 了
port ugal
这一 点
brist ol
价 比
没 想到
ap k
drive way
内 心
疯 狂
约 束
ark ansas
psy ch
海 上
under taken
减 轻
add itions
pursu ant
eleg ance
shr imp
allerg ies
eleph ant
走 出
邮 箱
有限 责任
imag ery
encry ption
ice land
user name
hone sty
eigh th
m ls
r ut
从 来
的 商品
find er
dam n
fresh ly
t ul
一 对
国 王
徐 汇
ic ult
im plants
pro g
den mark
text ures
stan ley
神 奇
mole cules
a ire
待 遇
手 法
ro ster
游戏 中
olymp ics
先 锋
p 2
john ny
一段 时间
奖 金
bl ended
倡 导
康 复
other apy
drain age
业 界
分 解
re ne
iss ance
girl friend
ro bo
op ard
sp ite
high lighting
nu cle
身份 证
shock ed
than e
men us
remo vable
eag les
o val
又 称
同 行
诞 生
ter o
believ ing
rab bit
优 雅
语 文
ol ine
ho lo
analy zing
assess ing
sprink le
n l
列 入
最 後
首 发
o ids
更 大的
nash ville
不 见
willing ness
stron gest
3 人
r x
wi pe
hom o
butter fly
haw ks
dis agree
赢得 了
不 动
ak s
12 2
bro th
absor ption
assum ptions
j ul
优 异
斯 科
go wn
br akes
pot ter
fa q
regul ate
except ions
tournam ents
之 間
head phones
sl ices
printer s
再 生
协 商
售 价
图 形
在 上
年 内
be ard
what soever
dist or
经 费
con gr
一个 月
我们 会
stat ue
外出 务工
o on
к о
为 例
的 時候
integr ating
intim id
transmit ted
b ian
h edge
tr on
av id
dial ing
kne es
v inc
后 续
家 电
限 于
pro pose
l end
万 亩
val uation
multim edia
烈 士
der by
bal d
带 头
比 特
ac up
dec ay
我 也
atmo spher
awk ward
介 质
外 汇
13 00
联合 国
营 收
ed er
un preced
cl utter
rel uct
scre ws
acqu iring
resid ency
alber ta
sympos ium
org ans
organis ms
cous in
helicop ter
reason ing
大 厦
每 周
hor mone
sle eves
先进 单位
t weak
单 一
处 分
市 区
mo ses
can opy
expect ation
fold ed
a unt
为 你
但 他
gr illed
game play
ric o
exc av
主 力
no kia
prophe t
yach t
med i
air ports
pred iction
195 7
unpreced ented
/ -
共 建
bo s
cal or
组成 员
em per
vap or
8 50
外 面
development al
note book
dent istry
gour met
e mo
信 仰
清 水
part ition
legisl ature
ballo on
巩 固
推 出了
關 係
魔 法
11 选5
5 mm
影响 力
alum inium
inser ted
曾 任
am d
ind ie
sto ols
即 便
崛 起
澳 洲
em en
hur ry
h ull
的 投资
退 货
野 生
imp lies
up side
youn gest
flood ing
阿里 巴巴
制 药
如 同
撰 写
缺 陷
en grav
gh ana
vegg ies
皇 家
le go
sh ark
app arel
open er
心理 学
h itch
冒 险
法 人
荷 兰
wi i
inter ference
clo sures
gener ates
vent ilation
上 门
仓 储
新 聞
l ust
厚 度
这 就
an as
tr apped
ass ort
warri ors
e po
正 面
润 滑
ind ians
search ed
professional ism
premium s
v od
渐 渐
白 酒
first ly
even ings
推 行
dis claim
30 4
overwhel med
con spir
ur an
not ices
ph i
dol l
infr inge
illustr ate
ü r
一 道
步 伐
con clude
belong ing
sier ra
欢 乐
ide l
question na
contribut es
blow ing
i encies
有 权
char ities
learn t
哈尔 滨
牢 记
en chant
卫生 院
現 場
am an
ad er
10 个
tra its
mil an
eco logical
egypt ian
班 的
道 理
工作 日
termin ate
glor ious
询 问
老师 的
catal ogue
搜索 引擎
mer it
科技 创新
tor que
retain ed
prev ail
hygi ene
d read
味 的
提 取
ass is
leg ends
bar k
montre al
r age
w l
ent ers
ss l
organiz er
be ers
forget table
结束 后
00 pm
fin land
r é
co ded
ben jam
这 场
aer ial
pe te
中 外
美 好的
违 纪
inst inct
管理 工作
clean ers
g it
不 受
学 士
组 长
it iner
20 21
stat ut
kick ed
1960 s
alz heimer
中 介
主 机
开 创
过 于
mon ito
fun nels
activ ists
tab s
约 翰
ist o
free zing
自然 科学
freel ance
严 谨
mo sa
ul ously
niss an
目 標
dis pens
cal y
real ised
信 念
弘 扬
感 恩
栽 培
省 政府
要 注意
道 的
ex cluded
inter iors
ens on
demo graphic
sus cept
公务 员
以 其
蓝 色
ref ine
mom s
gif ted
fib ers
p his
之 家
文 档
来 讲
80 s
这是 一个
bless ings
sa ur
har dest
tren dy
h 2
計 劃
le v
em bass
unique ly
n ity
实 例
终 身
on al
just ify
accep ts
carbo hydr
l ich
住 了
在 其
征 求
ar re
str ang
sens ible
recogn ise
si blings
monito red
千 年
师 资
高 品质
el f
mur phy
功 夫
ac claimed
struct ive
农业 人口
brazil ian
recess ion
家 庄
st roll
ro ts
am ber
yield s
sque eze
消費 者
con fron
co ats
oun ce
gu in
stem s
bing o
y r
党 中央
退 出
de vo
tr unk
pl ated
post al
stic king
兴 奋
d ick
m 3
y i
到 位
将 来
长 约
un sure
warri or
书 籍
意 志
改 为
as best
transform ing
自身 的
h ints
付 出
美 联储
適 合
in valuable
代表 大会
haz ards
体 内
厂 房
气 氛
ap pointing
mal a
graph s
teen age
extensive ly
grain s
ye ast
reser vo
arab ic
放 松
water ing
soci o
史 上
哈 哈
电 站
that s
rema inder
caf fe
今 年的
ar mor
do om
fon ts
tho od
s kept
反 弹
性 价比
签 证
进 出口
通 风
ep ub
crush ed
coco a
righ teous
庆 祝
ex pressing
story telling
invit ations
凌 晨
河 流
的 天
视 角
vi be
sens ation
jeff erson
traged y
乘 客
商 業
这 家
ver b
b ould
体 积
ful filling
serv icing
def ending
产业 发展
€ ™
年 初
这 是一
tr iv
放 置
partic le
hamp shire
扎 实
自 来
back drop
land mark
江西 省
交 叉
灵 魂
co b
dou bled
scr am
习近平 总书记
alleged ly
模 范
水 质
ab y
门 店
os car
sens ory
算 是
集 合
报道 称
之 上
任 務
兩 個
la go
14 5
官方 网站
特殊 的
whis k
4 x
n ons
br al
bre wing
ven ge
spot light
不 超过
re porters
mo to
acceler ate
bleed ing
4 s
g ren
汇 报
车 间
进 而
长 城
land lord
生产 线
m ash
前 三
气 质
cast er
stir ring
v 2
我们 要
anthro po
有限责任 公司
怀 疑
aim ing
ris es
南 海
的 花
je ts
cry st
武 装
风 光
brid al
cry ing
互 联
ik o
tun ing
n ancy
保 有
在 中
弹 性
改 编
cre ature
wal ter
r als
con ting
mar io
价值 观
境 外
存 款
to po
imp air
champ agne
政 务
web inar
产 能
隐 私
str anger
inv ites
nav al
sponsor ship
statut ory
毛 泽
fir ing
interview ed
proto type
900 1
repos itory
po ps
open ings
distribut or
length s
组成 的
4 20
ven ez
text ile
c ke
消 毒
较 多
inter faces
stamp s
亚博 体育
节 点
conver ting
当 下
re tt
cam bo
incorpor ates
kinder garten
lef to
b au
汉 语
am bul
res cu
advertise ments
是 为了
結 構
工作 室
时代 的
appet ite
此 后
真 诚
on co
ge ms
son ic
elimin ated
广 阔
很 高
毛泽 东
优 美
舆 论
mon key
sk ate
mor oc
treat y
nic kel
立方 米
战 士
手 指
12 4
有 力
阿 尔
se wer
cn n
j or
段 时间
进 球
com pose
amp lif
dar ker
安 裝
户 型
綜 合
red irect
lan ka
reflect ive
sky pe
carn ival
糖尿 病
k ine
北 美
和 国家
百 家
ty ler
fre der
reli eve
比赛 中
queens land
2 15
了 中国
re marks
so p
co ca
occup ational
brace let
雕 塑
fl es
commit ments
divid end
shak espe
友 谊
携 带
ev ac
cru z
游戏 的
re sum
相当 于
kat ie
势 力
港 口
第 九
de law
av i
card iac
的一 部分
人员 的
circu its
autonom ous
站 点
費 用
inter im
different ial
unt u
cand les
exam ining
安徽 省
口 腔
器 材
将 成为
探 测
热 带
19 55
na than
正确 的
u le
叫 做
防 御
wat son
imper ative
n bc
张 家
核 实
clud es
delaw are
水 稻
con gregation
ll ers
uk i
concent rations
spokes man
assort ment
仓 库
ro de
bo e
employ ing
发现 了
pun ishment
全村 有
fundament als
jel ly
as th
pet role
defin itions
quiet ly
stretch ing
的 就是
随 机
ce ster
主持 人
bangl adesh
c ough
t read
一 部分
中 等
客 车
总 监
金 山
sun rise
40 1
black berry
产生 了
inspect ions
spec s
法律 法规
等 相关
com pos
形成 的
shor ten
fib re
态 势
由 於
起 点
sequ ences
prem ise
j ol
hal o
request ing
tun es
irrig ation
n sw
交 付
政 法
min us
promp ted
cryst als
n r
亮 相
单 纯
听 说
有 线
car ved
turn er
enhance ment
repli ed
当 今
表 情
人们 的
稳定 性
al location
wh ites
life long
pat rol
ear rings
slo pe
均 可
节 省
ins ider
cons ort
是 从
man t
em it
laugh ing
在 本
ad missions
ge on
ca ut
春 天
最 有
绩 效
re forms
spe lling
分析 师
微 软
补 助
li x
ge ta
ga e
变 成了
arch ived
т о
主 页
度 和
或 以
的 经济
章 节
路 径
re ed
le m
id i
crit ically
中小 企业
共 计
场 上
还 没
comment ed
teen agers
asbest os
时 光
祝 福
lo pe
bo re
spec im
hind i
pac ed
alle vi
信 赖
camer on
wheel chair
absor bed
d welling
近 年
遭 受
father s
alex and
clar ify
spin ning
recon cil
yog urt
资 助
20 2
hud son
petrole um
力 求
等 领域
ful filled
他们 在
吸引 了
旅 遊
隐 患
管理 系统
grap es
retain ing
] 。
流 传
用 心
边 的
manu el
fresh man
d f
物 联网
电 动车
进 取
om i
je ep
worry ing
invent ed
福建 省
advertise ment
j c
s ins
修 正
实 地
步 行
跟 随
扶 持
ver mont
ident ifies
special izing
科技 进步
d ix
主 干
ut ing
pray ing
葡萄 酒
吃 饭
限 行
de terior
dis appeared
flu ores
淀 粉
牛 奶
的 分
rig orous
wol ves
к а
成 型
相 继
ra h
pat ron
shakespe are
个 别
化 和
草 原
菲 律
诈 骗
gr inder
av ed
bl ender
dis able
19 46
firm ware
inquir ies
c un
al ous
con form
gre ase
р е
十 余
注 射
的 国家
cat astro
c ured
h rs
侵 害
村 内
bl er
cor relation
under way
exp ir
老年 人
_ 花少钱中大奖
光 明
英 寸
jun gle
三 级
ch ili
dis appear
fle w
appar atus
损 坏
cl ing
ib a
bal ances
celebr ities
exception ally
不忘 初心
pre dat
imp ul
lyn n
一 汽
sc out
bul gar
主 导
多 功能
any a
能力 和
soph om
洗 净
re de
reli es
vulner ability
resil ience
m ish
的 两
马 来
re per
12 6
bear ings
b ip
交 互
回 顾
高 档
furn ace
jam ie
rin se
benjam in
r ash
á n
不 论
只 好
妹 妹
平 等
ac i
inter rupted
18 8
mel ted
st am
se als
un clear
draw ers
ida ho
f ats
行 驶
den nis
compet ence
dang ers
brac ket
r iv
导 体
火 车
英 格兰
compet itor
condition ed
获 悉
en cryp
pres sures
par cel
valid ity
头 部
投 放
资 深
手机 版
** **
中医 药
hawa i
d ull
报 考
班 级
un forgettable
cr ude
hand ic
cy c
mist ak
假 日
外 界
的 活动
it ives
ine e
中国 经济
intrigu ing
兰 州
怀 孕
科 普
con gest
mu g
allow ance
穿 着
老 旧
ca ther
explo sion
reve aling
1994 年
乘 坐
初 级
確 認
lif ts
upholster y
fier ce
的 原
考 古
re paired
ver sy
po lo
ma ur
cl ash
ob ed
cy to
20 5
fin ed
envelo pe
潜 在
ad here
w ic
摩 擦
的 不同
簡 單
级 别
over ly
cru el
im ply
co tt
ain ed
的 上
那 是
er p
law ful
mosqu ito
客 房
ch el
pa use
alpha bet
l ash
中 午
央 行
机 床
ne ural
he ck
hand book
elabor ate
y en
承 办
放 大
第 4
要 是
hel met
har a
pillow s
影 院
我 不
整 形
珠 海
般 的
t art
t les
主 营
老师 们
upgrad ing
的 名
的 合作
al mond
最终 结果
pav il
清华 大学
长 度
bar gain
" ).
化 解
執 行
虚 假
mass es
开发 商
inher ent
9 11
g ic
l ings
隶 属于
per u
enh ances
合理 的
人均 耕地
stell ar
院 士
do ses
str aps
wo ke
199 3年
v d
gu ilt
三 国
交 往
出 血
泰 国
长 安
no s
quar ry
bow ls
年 平均
經 過
约 定
） ：
wor m
craf ting
sac r
desc end
muf fin
達 到
so re
11 00
处理 器
低 温
me try
gr it
ub untu
mand ate
vari ant
人 与
人 性
pro tests
解放 军
interval s
ridic ulous
中 级
为 广大
零 件
ro th
abra ham
p ne
來 自
st ip
le o
hel en
金融 机构
应该 是
取 代
激 动
的 力量
第 3
use less
ven ice
magn es
g astro
土 耳
清 单
dis missed
guid ing
merch ants
surviv ors
的 城市
遗 传
own ing
negot iation
random ly
自来 水
dis cer
contro versy
section al
注意 的是
cocktail s
共 赢
金 沙
cred ibility
flag ship
储 备
均 衡
培 訓
春 秋
af fir
sk il
scat tered
! ),
安 卓
慈 善
） 、《
de cks
20 6
aller gy
建 一
19 48
pay able
bal i
gradu ating
cere mon
vibr ation
blind s
j ig
k ah
low ering
解决 了
喜欢 的
4 人
也 被
出 來
報 告
調 查
业 的
凭 证
do ts
v 6
此 类
ab dom
op ted
os ity
coordin ated
n p
e go
身 體
but ler
ple asing
lav ender
土耳 其
m ama
期 内
相 反
結 合
re minis
go at
br ides
partner ed
wast ed
devast ating
s late
公 開
im s
second ly
effic acy
d aw
p is
为 1
性 强
洗 衣
relev ance
化妆 品
e than
remo ves
stain ed
不仅 是
bris bane
诗 歌
beli evers
ny lon
tor rent
…… ”
3 px
k ha
之 为
十 字
封 闭
重 點
wal t
correct ed
stan ford
brus sels
來 說
pro active
ex cluding
dif f
flo rence
trust worthy
开始 了
f aux
n caa
cr ab
sm iles
重庆 市
orth odo
摩托 车
j al
中 原
学 报
谨 慎
閱 讀
in hal
am ination
ra id
anim e
manual s
排行 榜
产 物
岁 月
长 达
it ious
lo b
he ath
sm ash
人才 培养
195 4
n w
上 年
st ors
el bow
头 发
市 政
礼 物
纳 米
15 5
联系 我们
attribut ed
subsid iary
测 定
环 球
相 机
而 出
高 铁
fun nel
其中 包括
alleg ations
poke mon
clut ch
me te
dist ances
ff le
党 建
remote ly
c bs
本 着
进 去
re lying
is al
he ather
dou g
展示 了
tox ins
v il
z hou
萝 卜
這 是
fr ies
了一 下
cleans ing
法 学
灾 害
的 用户
制造 商
個人 資料
sla ve
c ind
g at
把 它
浪 费
等 方面的
mat s
present ly
break through
有效 地
atom ic
m f
一 大
全面 的
deduct ible
3 c
战 役
目 光
in doors
ex emp
comp ul
ci o
fore most
bel ts
lif es
模 板
thy roid
19 39
az ure
adapt ive
sna ke
e en
类 别
那 就是
領 導
ance stors
que ue
北京 时间
自然 村
3 80
p ts
是 我国
under go
indu ction
办事 处
f encing
子 里
幅 度
hook s
comfor ter
观 赏
ker nel
assum ption
不 对
中 小学
乐 趣
你 是
fr aming
sho cking
har vey
为 客户提供
修 建
wi g
trans cription
lan es
detect ive
) 》
公 顷
the ology
che at
avoc ado
, '
п о
密 集
fer r
hu a
p au
表 彰
scr ut
雕 刻
end ur
mat te
全 镇
极 其
身 为
wi e
id as
ast ically
col ony
fu els
树 脂
re production
per th
sto ol
def ender
国民 党
scru b
拍 照
无 锡
ill usion
cur ved
fix es
prevent ed
distingu ish
convic tion
d iox
天 堂
ne on
ins ane
北京 大学
材料 的
可 爱
睡 眠
附 件
on i
re b
cum ber
neighbour hood
enclo sed
隨 著
面 板
服务 中心
stap le
whir l
t ility
宾 馆
目 的是
结 论
clo ses
nutri ent
定 价
或者 是
标 识
运 转
网站 或
出 于
十 几
over looked
cor k
add ict
ten ure
kind a
decl are
hugh es
o we
上 周
受 欢迎
流 水
首 页
st ics
sh ah
ba it
worth while
earthqu ake
展 会
文 本
老 公
第二 天
investig ator
dece ased
dump sters
intention ally
accompany ing
手 动
灰 色
航 班
阻 止
高 科技
in ability
re build
ab normal
class rooms
cu bic
harris on
lone ly
增 添
ud er
dis ruption
micro phone
recept or
副 教授
极 端
素 养
go th
sp i
cour ty
信息 技术
下 来的
例 子
感 的
省 内
to es
un authorized
bo li
reli ance
k ills
里 斯
lu cas
ju lia
da q
democr at
oak land
号 线
太 大
流 畅
远 远
am pton
目前 的
squ ash
专 著
选 拔
be et
20 8
亲 子
函 数
家 协会
規 劃
he mp
my sql
ky le
iran ian
l ily
班 主任
re clin
monu ment
j ake
与 其
也 不是
层 的
缺 少
pr ud
rail s
shor tage
grab bed
」 、
站 式
考 验
醫 院
fe males
prov es
平台 的
represent ations
kick s
trib al
portra its
digest ive
公众 号
三 等奖
任 职
概 率
se ated
un fortunate
dr unk
artis an
a 2
v ity
福 州
豐 富
重 建
real izing
25 5
研究 的
satur ated
严重 的
一 事
之 内
商 用
sm iling
bal lot
相关 部门
k ash
announce ments
chef s
vouch er
end ors
14 4
chiropract ic
asth ma
法 的
立 场
折 扣
us ions
sto cking
为一 体的
质 疑
re start
ac credit
im ped
有一 种
土木 结构住房
座 谈
早 就
欧 元
adjust ing
matur ity
向 前
常 委会
清 新
溶 液
繁 殖
送 到
re charge
am ended
track ed
vin cent
renov ated
中新 网
wau kee
中 所
体 检
具 体的
振 动
烟 草
职 位
sh at
int act
advis er
单 双
ach i
bi od
bill ions
这个 问题
capt iv
五 大
完 美的
数据 来源于
im ports
cre ators
13 8
hol m
neglig ence
一 看
唱 片
在 家
甲 状
un believ
cre st
pres so
19 47
rest ing
dest iny
coll agen
glas gow
c g
不 僅
12 7
ped al
severe ly
木 材
被 人
s ans
ar do
ur ine
mar gins
ren ted
mer ge
oper ative
simple st
nit rogen
kilome ters
otta wa
acup un
r iel
十 足
投 影
电 网
这 条
colle ague
flu ctu
capt ures
bec ca
atmospher ic
ver sa
00 元
av is
sett ling
保 安
修 理
pass words
訂 單
ti bet
wid get
tight ly
乐 园
ber ke
ground ed
euro s
ham pton
不 然
及 以上
的 部分
笔 者
健康 的
hum ming
sar a
cather ine
看 好
le ys
con ception
squ ir
現 代
数据 为准
进口 车
embass y
z h
制 成
演 奏
近 代
re bel
ro ds
ab ol
con vinc
ment oring
bl ends
12 9
你 会
in nings
cont amination
mult itude
一 周
商 贸
期 間
直 至
st own
pract iced
i u
一 本
只 需要
并 以
当 日
激 素
go o
cal gary
bow ling
sor ted
不断 的
surv iving
stim ulate
仍 在
宿 舍
牺 牲
结 算
se iz
sil hou
也就是 说
e lo
减 肥
总 数
而 来
in ating
nat i
mc donald
extr acted
农 作物
对 中国
bi ased
是一 個
dan cers
brain s
dial og
sym phony
力 学
微 生物
in herit
priv ately
坚持 以
jere my
starr ing
7 000
地 面积
新 中国
迅 雷
up stairs
mon sters
jac kets
chand eli
激 烈的
给 人
频 繁
iv ir
sl am
cham bers
laptop s
chal k
venez uel
magnes ium
汽 油
roo ted
spark ling
出生 于
p ha
手 的
le asing
heart ed
parad ig
cartrid ge
和 小
ro wer
with stand
县 级
回 去
新 一代
编 号
趣 味
12 px
sk ins
infr ared
volunte ering
toile ts
é e
从 中
倾 向
口 味
稿 件
ne br
sp ur
last ed
nom ination
最终结果 以
f ights
完 毕
电视 机
家 园
who ever
argu ably
百度地图 数据为准
数据来源于 百度地图
最终结果以 百度地图数据为准
d anny
体 重
權 利
毫 无
配 方
detail ing
phil anthro
congress ional
參 考
更 高的
本 数据来源于百度地图
的 主题
硬 化
顺 序
notice able
積 極
计 量
die ts
tam il
时 报
病 情
码 头
jo s
rein forced
v 1
像 是
ur ged
cut ter
政府 的
摄像 头
d t
借 鉴
影 音
om on
over sight
mot if
cro at
square s
bell s
invas ion
shep herd
n inj
o sa
外 围
我 说
经 纪
風 險
human itarian
intern ally
incur red
与 其他
二 年
届 全国
短 短
预 订
am anda
cr ank
19 2
sub way
trag ic
r ats
w af
少 量
您 在
ther most
vi enna
brand on
考虑 到
gad gets
lo ch
wi ves
all ing
cr acks
领导 人
oo oo
prosper ity
一 把
不 已
的 角度
走 到
ke st
leak s
orche str
t res
变 为
的 成绩
st ance
fl ats
供 电
船 舶
er ts
cy pr
组成 部分
lg bt
% ),
l ud
内 置
力 争
千 米
四 周
越 多
針 對
in ous
er gon
car pets
画 家
行 動
ency clo
card board
duplic ate
s iding
无 关
见 面
開 展
thr iving
distribut ors
profess ors
liqu or
z ion
太 子
mo ss
prov ing
90 s
interesting ly
transport ed
3 16
v amp
定 向
移 植
都 被
al titude
wind ing
商品 信息
pil ots
关注 的
demonstr ating
de fer
pol ite
sandwich es
rubb ish
endur ance
j ak
历 经
受 到了
赶 紧
ad y
sy s
adm ire
proli fer
一 块
振 兴
清 除
见 证
he brew
ere ct
corros ion
! .
b ha
d x
后 者
看 的
re juven
ex pose
fo ren
check list
coven ant
l loy
器 械
风 机
世界 各地
保 守
th i
is ha
lo re
under water
emper or
一 百
小 于
答 应
网 民
分别 占
lime stone
阿拉 伯
c inc
与 中国
tr inity
pre de
mer ry
丽 的
理 性
ro gers
mil waukee
stat ute
去年 同期
inf ants
s z
另 有
的 医疗
载 体
at m
hook ed
从业 人员
there after
car rots
reg ress
sal aries
lay ered
业内 人士
仅供 参考
j peg
湿 度
疫 苗
out fits
recogn izing
crack ed
k ale
30 1
sacram ento
v ak
平 板
要 把
让 他们
cler k
" ，
d p
h ue
accident ally
twee ts
甲状 腺
w end
al on
magn itude
" ;
多 位
极 速
port ugu
tw ins
pm 2
restr iction
que bec
pul ls
rif le
复杂 的
2 x
2 24
k re
等 工作
tr illion
ito l
strain s
berke ley
prede cess
h m
r acks
三 次
火 车站
in complete
un common
bl iss
sub strate
器 官
特 种
篇 文章
lo ops
ut most
sp ont
nor man
50 1
night mare
chev ro
in son
ine es
advent ur
中 西
市 的
彩 色
斯 拉
老 婆
锅 炉
ut er
care d
即 时
af fection
美国 的
tele com
基金 会
珍 惜
黑 暗
op to
dist ill
经济 社会
impress ions
fas c
metab olic
exped ition
f um
j it
死 了
网 点
陪 伴
pol ls
trust ees
eco logy
服 用
東 西
sp ill
检察 院
k ie
ho ts
18 5
amp li
合法 权益
exem pl
在 全球
sp ends
我们 可以
elect oral
govern ed
sens ing
太平 洋
thor n
mechan ic
新闻 网
法 兰
隧 道
vol ley
flav ours
d it
k ane
r ans
z ar
准 则
he pat
regist ering
straw berry
soo thing
场 合
en vision
条件 的
princ ip
explicit ly
挂 牌
dealer ship
兼 职
我 和
教 职工
既 有
网 购
ch t
tw ent
cul min
datase t
离 婚
迄 今
st ef
pre domin
ot t
ben z
rad ius
31 st
cinc in
f ade
u z
pa thetic
24 th
therap ists
deleg ates
chevro let
f ere
n v
严 肃
pan try
价值 的
booking s
分辨 率
i bles
p id
學 院
的 女
過 去
margin al
tact ical
螺 旋
钢 琴
cond ens
sw an
社会 科学
bang al
inhabit ants
nebr aska
a q
为 企业
处 处
有 一些
準 備
re x
ro ver
de af
el ic
head lines
成年 人
宪 法
将 继续
是 大
有 害
19 42
疾病 的
ing en
ak in
pain ts
colour ful
杰 出
查 找
dou bles
等 于
plan ets
wel sh
dig ging
out dated
19 44
infin ity
varian ts
dign ity
silic one
w anna
的 表现
青 睐
100 元
sco o
obsess ed
一 分
就 读
平 原
海 岸
等 多个
pe stic
out sourcing
co her
dis par
att acking
的人 才
rot ating
illness es
事务 所
她 在
身 心
by pass
三包 服务
” ?
的 规定
pain ter
sav vy
bacter ial
菲律 宾
冶 金
攻 略
re deem
por cel
mess enger
eth yl
五 十
耐 心
黄 河
go p
mile stone
antibio tics
n ay
治 療
腐 败
ple x
bak ery
p ony
估 值
研 發
ob serving
其中 农业人口
jud ging
r ist
t ad
80 2
dead lines
preser ving
tig ers
n ull
的 确
精 华
線 上
wn ing
pot tery
我 认为
畅 销
真 相
att ic
qual itative
交通 运输
teen ager
產 生
达 标
no stal
su t
bb ie
caffe ine
) !
h ips
遗 漏
ur g
gar ner
用户 提供
athen s
h mm
对 抗
诊 疗
is is
im ents
io logy
mic rof
occur rence
不得 转载
mile age
carri age
ether net
h off
海 关
空 军
要 想
un ted
good bye
recogn izes
shif ted
hilar ious
sophom ore
按 钮
pro position
exclus ion
tang ible
taxpay ers
水 库
流 感
dr ought
人民 群众
consult ancy
nur t
brush es
h in
还 可
dis appointing
meth yl
如果 是
一 一
多 多
con dem
advert ised
configur ations
pronoun ced
whats app
turno ver
c ct
介 入
保 密
出 国
大 厅
辦 理
一定 会
aquar ium
一 半
南 昌
徐 建一
险 企
dec king
hill ary
cla ire
个性 化
bangal ore
f res
rout ing
党 组织
山 的
看 法
足 以
for give
ri ad
bon ding
.... ....
spin ach
分 会
红 外
le ash
se mic
appe ll
发布 会
trave lled
云南 省
cincin nati
在 接受
忘 记
抵 抗
de cal
step han
是一 位
collect ors
今天 的
geo graphical
3 m
和 高
残 疾
然 後
記 者
ly mph
pa ve
tur f
fold ers
burg ers
rena issance
filtr ation
他 还
六 年
正 好
the li
ev ap
car los
defic iency
disast ers
doctr ine
r ivals
众 人
嘉 宾
星 级
某 个
表 現
th ou
fa ults
live stock
condition al
不 宜
变 动
花 费
er up
am big
mer ged
形式 的
aband on
大 楼
较 小
饮 水
acc ents
york shire
所在 地
r l
大 桥
开 业
res ide
sever ity
period ically
argu es
董事 会
3 a
认 同
tr out
sun glasses
select ive
weakness es
上 游
下 載
not or
work outs
star k
中心 的
endeav or
consort ium
e clip
m able
利 的
古 城
ed wards
per ed
pl edge
organiz ers
stret ched
相同 的
坦 克
开 元
pe ek
ul ent
发展 和
os es
差 别
） ）
new ton
form ally
13 2
wag on
n f
w att
像 素
等 方式
me ts
defin itive
attr acting
师 傅
指 引
预 约
de structive
19 37
char coal
bi ome
phil lips
s g
半 导体
的 神
怎么 办
emphas ize
变 换
口 感
备 受
th um
ident ifiable
ric a
gam ers
diox ide
中 型
中 最
催 化
害 怕
track er
demand ed
regul ators
porcel ain
是 为
本 届
ro i
领导 干部
deser ved
prison ers
diagram s
伊 朗
还 原
war ner
创造 了
puzz les
員 工
回 升
在 过去
村 庄
be au
ser ge
gu ine
proble matic
nood les
剧 院
al beit
we i
sy ll
cus sion
出现 的
scan ner
trib es
受 害
惊 喜
in appropriate
sh en
mo or
pe pt
central ized
硕士 学位
k end
乾 隆
余 篇
子 宫
手 册
滿 足
ar oma
adv ancing
hun ters
amend ments
negoti ating
glit ter
檢 查
紧 紧
ed itions
tax ation
trail ers
util ization
hypo thesis
allerg ic
ad der
lu bric
建设 和
mel issa
drag ons
adop ting
b red
d ice
d ong
促 销
ar men
head aches
photograph ic
wick ed
有 时候
燃 油
生 导师
in car
st ab
fore front
你 在
比 重
的 方向
脸 上
water front
hous ed
territor ies
刊 物
汇 率
re covering
comm issions
ca u
vill ain
stick er
acceler ation
smell s
的 项目
高 雄
end um
19 41
研究 会
flu or
o bey
过 度
教育 局
安全 性
grand parents
法律 责任
4 30
t ilt
入 学
和 大
绝 缘
越来越 多的
g mt
利 息
联 保
陌 生
ant is
social ly
web page
的一 次
remember ing
ko v
throw s
exem pt
inevit ably
padd le
brows ers
botan ical
實 施
的 国际
er os
ch assis
wh ale
ys is
weigh ing
seam lessly
interpre ted
forgiven ess
家 乡
形 容
社 团
袭 击
随 意
en counters
for ge
oc y
continu ity
fashion able
背景 下
e ct
電 視
gar cia
labor atories
rout ines
exhaust ed
6 人
后 果
落 后
醫 療
in ning
op posing
path o
brewer y
d ah
в а
不 含
建 国
网 红
那 就
饭 店
act ic
est ates
sign atures
special s
23 rd
fro g
stre ak
portugu ese
n aked
各 方
梳 理
米 的
bo iling
bl ake
bright ness
deta ched
k od
演 绎
队 长
cu le
bur ial
hydr ation
josh ua
weld ing
医 学院
合 伙
home page
accor d
3 75
p aw
克 服
散 文
pe tr
dis appointment
nor we
plast ics
当事 人
3 25
之 时
从 未
安 置
宠 物
疗 法
观 光
ste er
clean up
网站 的
alli ed
peripher al
5 公里
r ive
弟 弟
疑 问
tra umatic
flu ent
emp ir
compassion ate
prolong ed
pavil ion
n inth
亮 点
sk ies
war nings
国 庆
西 兰
ang ered
bas kets
main land
heav ier
不断 提高
朋友 圈
nas daq
做 出了
包 裝
水 面
ed en
ner ves
最后 一
n ib
机 和
法 案
ho ps
post ure
har per
vill as
compress ed
d ens
劳 务
和 中国
py ram
所谓 的
j acqu
无 毛
石 化
赋 予
personal ities
god dess
minist ries
23 2
refer rals
veget ation
wound ed
ã o
学 期
开 户
极 大
ped ia
lum ber
pier re
1984 年
d ine
x en
募 集
是 用
wal nut
ru ins
dess erts
中 东
善 于
抓 好
沿 海
as ph
ro sen
li ar
du i
cli f
传统 文化
旅行 社
电动 汽车
业 有限公司
圖 片
正 如
head ache
mob iles
reli ev
eth iop
五 金
模 特
阶 级
ru in
aps ed
hind u
pictures que
bang kok
的 地
花 序
re pet
vol t
vol ks
hy und
为 主要
款 式
独 家
so s
ha st
open ly
作为 一个
小 镇
的 消息
饰 演
am ine
contract ing
种植 业
承 载
ab ras
app end
wonder fully
博士 学位
乡村 人口
火 灾
跨 境
这 两个
jo hann
teach ings
pan ther
conf ess
pin ch
j j
光 滑
华 东
可 惜
就 會
找 到了
調 整
pr air
di ary
consist ed
最高 的
instruction al
patent ed
东南 亚
圆 满
核 桃
次 数
an at
ri pe
v ague
开 工
shut ter
colomb ia
孵 化
vers es
jour neys
stu art
cataly st
y y
更 改
當 然
真 的是
cr ap
bit es
28 th
下 半年
垄 断
备 用
導 致
ce ase
mini ature
bis cu
academ ics
2 16
怎 麼
王 子
的 双
min ster
elev ator
refuge e
地理 位置
4 10
尽 可能
港 元
隐 藏
op io
char le
分别 是
毕业 后
得 了
str om
ell en
3 40
出 场
意 見
li zz
sh ining
全国 各地
cos met
% ).
2 11
區 域
load er
不断 地
关系 的
illustr ates
explan ations
d war
日 军
泡 沫
re location
pres id
design ation
period ic
集团 有限公司
resid ing
coordin ates
6 40
v ents
大 理
实 战
改 變
长 春
ps i
lay s
da unting
layou ts
礼 品
th igh
or b
ag greg
cur b
cur ated
sk ull
class mates
emplo ys
super market
den ial
22 nd
smo ked
hyund ai
士 兵
好 处
遍 布
li an
activ ist
pan ama
mp 4
广州 市
拍 卖
查 处
给 我们
风 情
高 职
travel er
27 5
profit ability
kit ty
d art
y ak
全 会
暴 露
轻 轻
防 腐
ap ache
shell s
congr ats
l n
p sal
整 個
稳 产
迎 接
ch y
19 38
26 th
foot wear
genet ics
十九 大
价 钱
无 奈
渴 望
pl en
br ighter
geome try
т е
是 国内
ro dr
un fair
2019年 上半年
adequ ately
intention al
停车 场
zomb ie
r ak
s welling
豆 腐
he t
cre ws
fit z
half way
conve yor
il ly
20 年
dis semin
cur ves
val ves
pat ri
staff ing
advert isers
农户 总数的
r w
加 強
ur able
pa you
mind fulness
init iate
1990 年
的 标准
的 态度
ne a
ish i
leban on
devo tion
encryp ted
1 b
那 时
都 會
is ive
att ent
没有 任何
kn ives
disclaim er
是 目前
law makers
mess y
bath tub
rasp berry
n im
复 习
配 资
mind ful
其他 方式
authentic ity
broch ure
教 堂
ment ions
em ir
13 3
question ed
为主 的
三 人
合 约
每 位
白 云
be have
lo ses
br as
win ery
sound ing
的人 物
output s
eclip se
g and
下 方
所 长
耐 磨
red und
27 th
prim er
launch es
天津 港
trave llers
substit ution
accredit ation
d itch
w ished
点 评
的 声音
联 络
途 中
an not
perform er
quarter back
compr ise
b f
秋 季
服务 业
通过 了
tom my
hot test
发 掘
并 与
ud a
开发 的
simpli fied
in cub
ange la
commun ist
ger ald
lu cy
业务 的
util izes
wag en
apprent ices
c ds
确 立
聯 網
for bid
transfer ring
construct ing
d ile
y ama
出 入
婚 礼
底 部
新 颖
的 理念
con cess
19 43
ons ite
process ors
奇 怪
宝 马
ag ar
wel comes
construct ive
瑞 士
通 俗
are ttes
com promised
home town
rang ers
motiv ate
高等 教育
acupun cture
g ated
o pe
两 名
的 孩子
经 贸
fig uring
writ ings
23 5
explo it
joint ly
e tern
元 件
冬 天
而 又
辛 苦
form ulated
exam ines
optim istic
wast ing
xx x
也 不能
友 情
che mother
cru ises
hall s
frag ile
vine yard
orthodo x
1 a
d res
w v
乐 观
激 活
科 创
终 止
dr if
gen res
satis factory
c ac
包 裹
印 发
当 初
等 到
高 手
13 7
ba iley
front ier
groo ve
courty ard
的 各种
红 旗
雄 厚
research ed
bullet in
p ans
啤 酒
墨 西
科 院
精 致
af fin
insur ers
结构 的
rebound s
不 必
主 題
re ps
med iation
服务 平台
ru shed
amb ient
j okes
之 道
了 几
伟 大的
條 件
燃 气
贸 市场
dis patch
tem pt
ason ic
key note
” ),
市 值
lo os
ind is
ph on
val e
了一 种
deliver ies
contribut ors
a fore
l af
信 托
and ers
crim inals
lack s
trig gers
pir ates
reservo ir
增 多
主要 种植
viol in
susp icious
会 出现
入 了
缺 点
gr az
sy ner
sec ular
自律 措施
」、 「
h ap
原 子
派 遣
用 药
form ul
时间 内
lun gs
b ins
塞 尔
德 育
as sert
pt ic
养老 金
1950 s
20 25
克 兰
审 判
af firm
14 9
13 1
sor ting
celebr ates
政策 的
唯一 的
d ab
被 誉为
辣 椒
长 大
al ia
ad ore
plu sh
convic ted
二 维
列 为
帮 忙
30 am
其中 的
cd c
if iers
lon ge
bul lying
civil ian
brook s
d umb
出 色
環 保
ke to
gr as
car amel
personal ised
sco py
cig arettes
住 在
党 组
博 彩
必 需
ty po
custom izable
kn ights
infringe ment
化 合物
re construction
ess a
express ly
有效 灌溉
rhe tor
f ay
江 湖
用 车
re uters
al ley
po ds
den om
filter ing
forth coming
3 15
o i
伊 斯
传 染
回 落
猪 肉
石 材
sa usage
mill ing
卫生 所
philosoph ical
recur ring
h are
w ounds
卖 家
将 是
遗 憾
稳定 的
n aut
一 时
发 货
抵 达
数 百
權 益
進 一步
都 知道
除 此
re jection
se man
cop ied
mel ting
immig rant
calor ie
副 会长
at las
over sized
pat ents
must ard
sound ed
lam inate
行政 村
shoo ter
p ouch
列 车
报 纸
提 起
機 械
额 度
out lines
man go
strip es
succeed ed
aqu a
harass ment
壮 大
程 式
首 要
go ose
ho re
air plane
工作 会议
cn c
heaven ly
conce ived
多元 化
供 應
大 门
科 目
音 频
up ward
em ission
代表 的
jack pot
constit utes
accum ulated
ultr as
titan ium
unve iled
p oul
r е
周 末
风 雨
im pose
ll or
aw ake
fil ip
类型 的
stamp ed
complement ary
strang ers
c ci
给 您
身 材
tr in
day light
supervis ed
vig il
u sh
孔 子
珍 珠
st ed
un cover
tr aces
past ry
发生 的
taxpay er
切 换
感 冒
管 控
cl amp
dr ift
incl ined
educ ator
全国 联保
cook er
rac ism
lith ium
smar ter
z an
样 品
法 官
预 警
om an
we ars
fl are
wre ck
intest inal
om it
man or
ie th
royal ty
民 俗
随 之
al lo
fly er
身 的
re becca
le igh
my riad
el ess
fact ories
success es
uk rain
elimin ation
intric ate
c ider
制 冷
帶 來
恐 怕
细 腻
de w
fr iction
col a
contribut or
上 级
太 空
白 天
顶 端
ed ic
spe ar
ak er
dan ish
监督 管理
在 该
de vote
20 3
car r
real ty
13 4
dete ctor
volat ility
理工 大学
d addy
乐 队
太 太
细 致
联 动
ra de
full er
spo il
瀏覽 器
nex us
chore o
一 声
传 动
备 注
平 凡
并 于
vel vet
bol ts
exerc ising
5 万
有 益
生 殖
pro jection
fire works
barrel s
w m
iv an
mis leading
' )
典 型的
堅 持
新 品
无 忧
深 深
透 过
ad ata
cl ues
play station
fif a
墨西 哥
晋 升
荣 耀
in box
注意 到
经历 了
礼 仪
蒸 汽
ed ay
de vis
bat man
surge ons
hil ton
的 可
ch ad
bi king
rect angular
关 怀
灯 光
tr actor
br yan
管理 人员
accomplish ments
resur rection
7 天
[ /
大 人
甲 醛
cor rupt
ble ach
retrie ve
clust ers
persu as
convinc ing
他 对
缩 短
tr ays
70 s
heat ers
委员会 委员
公布 了
parliament ary
幽 默
ir regular
20 4
em in
exceed ed
dum ps
norwe gian
o to
央 视
de priv
pu ff
ham as
x 1
確 保
过 渡
20 30
head line
嫌疑 人
k k
装 有
ar ter
approxim ate
网 的
cl an
new castle
dream ing
alp ine
l te
不 懂
已 在
监 局
还 需要
ut s
con serve
des cript
无 效
车 联网
ac s
mon ds
事 宜
增 大
得 很
液 晶
ar ises
sal ads
comput ational
pedestr ian
不 懈
天 猫
推 動
搭 载
sequ el
extr acts
v ivo
困 扰
br unch
mar tha
roof s
civil ization
resil ient
和 新
尔 斯
流 失
狀 況
的 艺术
领 袖
is le
可以 选择
sign aling
public ity
frank ly
infect ious
longe vity
在 外
女 友
ch asing
depend able
cool ed
操作 系统
corrid or
2 万
m ps
事 業
听 取
观 测
es presso
it ated
ad ul
li king
ha us
system ic
frequ encies
lyn ch
时 必须
眼 镜
轿 车
flor a
的重要 性
а t
忽 然
流 浪
tem ples
17 8
conspir acy
安 静
ac cus
nat o
jud ged
exhib ited
slo pes
马克思 主义
桃 花
ar in
hand some
199 1年
star ters
coordin ating
1986 年
cosmet ics
: .
并 购
建 築
掉 了
app y
民营 企业
不 低于
元 年
急 性
拿 出
播 出
的 面
的 风险
ct ory
com posing
王 朝
组 件
衍 生
里 程
pr ist
play ful
home land
13 9
mal icious
是否 有
癫痫 病
過程 中
写 的
这 份
on board
at ro
instit utes
充满 了
privile ged
仍 是
你 要
纪 检
起 义
邮 票
su dan
19 36
treas ures
bern ard
panor amic
o 2
s crip
® ,
简 直
ge ared
jo el
如果 有
委員 會
所 述
in voices
et f
human ities
名 列
战 场
的 存在
se aling
min ne
diagno se
susp ic
entrepreneur ial
就 被
版 的
inter acting
inter fere
g utter
接 入
提 名
im paired
gen ome
author ised
认为 是
exceed s
h f
但 我
搜 集
衔 接
iling ual
demonstr ations
1989 年
1988 年
budd hist
l m
一 九
一 點
關 鍵
re union
ab by
em bell
的人 员
198 5年
l ance
一 群
as he
ad idas
hel m
mb ps
资源 的
t xt
击 败
分 的
就 需要
这 对
高 原
进行 的
morning s
t cp
奶 奶
游 览
稳 步
ne e
sy non
cap itol
mer ger
aret te
来电 咨询
u an
一 口
萬 元
sal sa
war n
compreh end
decre asing
sculpt ures
scand al
e ats
全 自动
吃 的
大 使
实 训
曲 线
re use
的一 项
volcan o
y le
去 除
靠 近
on in
ver a
direct ing
miss ile
hour ly
athlet ics
stead ily
愿 望
新 城
洛 阳
的 网络
wh iche
cr ane
nic ole
anno y
u u
v ick
中 華
交 给
符 号
葫 芦
鲜 明
id ad
em eral
ci er
可以 用
13 6
tast ed
brut al
假 期
撤 销
wr apping
pet ro
risk y
advis able
reward ed
empower ing
c ite
o vo
钢 管
顶 尖
re cycle
con verse
shr ink
skil let
whiche ver
k is
p ci
wi dow
ka i
mode lling
hack ers
é s
当 选
成 長
花 卉
： （
ev angel
questionna ire
a ways
为 本
信 贷
to mb
op tic
ram s
certific ations
proceed ing
asph alt
为 一体
名 牌
艺 人
li u
trans c
主要 用于
29 th
gas es
保 險
将 以
极 大的
电 阻
un used
int ens
wrest ling
z ig
pr ere
ris en
b ats
动 脉
物 资
in sufficient
19 35
mix es
amazing ly
ray mond
污染 物
bun k
bub bles
== ==
稳产 农田
传 达
冰 箱
发 酵
超 声
tur tle
electro de
enzy me
保 卫
客 厅
tum ors
expend iture
aesthe tics
presum ably
一 句
太 原
奖 项
当 局
赠 送
cur sor
thr one
不管 是
中 期
仍 有
内 在
lit ter
mult if
rain y
thir ds
山西 省
6 亿元
c res
un ite
wa iver
pet rol
陕西 省
2 14
g ith
j av
個 月
氨 基
沙 发
的 金
科 幻
配 有
高 稳产农田
need less
occup y
afore mentioned
c ain
’ ，
复 印
无 比
讲 师
fil ming
国际 化
cit ation
contem pl
一 台
习 主席
以 來
宝 石
新 人
plain s
pup pies
lloy d
光 学
客 运
柔 毛
ul ted
hu bs
question ing
oce ans
spon ge
分 支
强 烈的
的 战略
high land
ian o
pol is
sign age
standard ized
nich olas
( +
一 手
守 护
楼 市
er as
play off
开发 者
pill ar
spell s
前 提
同 类
称 之为
car o
人民 的
arrang ing
patrio ts
rook ie
exempl ary
水 晶
it as
be ams
im pe
ty re
under going
resum es
* .
人 气
历 任
瑞 典
的 話
im prison
du g
19 33
wall papers
neighbor ing
u ble
华 北
整 齐
首 个
id al
connect ors
screen ed
功能 的
virt ue
意识 到
喜 剧
宁 夏
线 条
色 情
ar te
sle e
subject ed
养老 保险
牙 齿
pre y
gre ed
play offs
wat ts
alex a
b ere
bl ending
shoo ts
动 员
及 相关
om ing
co hes
den im
要求 的
第二 届
doub ts
% ）。
参 展
德 里
just ified
sho res
ft p
gab riel
cartrid ges
v ans
乙 烯
交 所
当 你
片 的
让 她
高 潮
pack ers
不 止
常 用的
战 胜
石 头
35 6
collect s
respond ent
supposed ly
stro kes
weigh s
j ars
的 家
be ls
kno cked
sn ip
spread sheet
broadcast ing
craw l
volks wagen
v ier
博 弈
增 長
戰 略
饮 用
體 系
per missions
car ving
evalu ations
青年 教师
的前 提
phenom ena
kum ar
来 到了
減 少
設 定
辦 公
隆 重
lan tern
scal p
当时 的
fitting s
比特 币
r att
突 发
at op
se ld
iv ory
sp ike
respect ful
lock er
希望 能
hd mi
decre ases
主题 教育
dé cor
事 物
储 存
相 连
美 洲
老 虎
较 好
韓 國
ay an
li po
pun k
elimin ates
生命 的
人 之
促 使
假 设
all ed
非常 的
pun ct
defend ants
kay ak
showcas ing
hormon es
高稳产农田 地面积
a while
p added
了 自己的
火 爆
資 金
em pathy
pre jud
hun gary
geta way
r bi
分 局
汇 聚
ma k
20 7
sound track
boost ing
cig arette
q atar
强 势
暂 停
选 购
re ap
ad os
ul ates
ste ward
struct uring
gas oline
versat ility
rivers ide
capsu le
majest ic
o wing
机 组
為 您
起 伏
en dow
pl ur
el k
pre mature
par amount
hope ful
mas ks
trust ee
机构 的
inde mn
spl end
正常 的
详细 的
rev ival
distur bing
barbe cue
prair ie
gith ub
地 形
境 界
大 胆
审 议
打 电话
菩 萨
行 李
serv ant
增长 率
改革 的
理论 与
hann ah
caregi vers
次 的
熊 猫
看 似
in fest
attr acts
grand e
面积 为
发生 在
m cl
p ings
上 发表
情 报
立 的
颁 发
bo bby
shar on
荣誉 称号
k v
写 字
gen eva
comb ust
联合 会
想 起
过 多
col in
wr aps
trans itions
主要 的
vac ant
ht c
讲述 了
不 容易
事 先
毫 不
混 乱
iz a
inter change
sing ers
地 带
朝 阳
通 行
pat rons
got ta
educ ating
光 电
入 手
您 好
杠 杆
水 电
沃 尔
ar ity
om ics
se w
top ping
ral ph
swe ater
fi br
不 代表
床 上
授 權
疗 效
贯 穿
高 管
ad renal
100 00
controll ers
y rs
权 的
某 某
牛 肉
远 离
com post
skin ny
直 达
硬 盘
者 和
re els
ne phe
new born
gu i
一个 个
hydr ated
munic ip
9 个
器 件
的 特
相 當
空 白
说 了
may o
sun days
introdu ctory
skir ts
artif acts
semic on
c iting
不 高
他 就
清 代
pro se
sing ular
park ed
insul ated
whol ly
a 4
一 期
repair ing
卵 形
老 百姓
长 三角
阀 门
co sm
low s
fold s
sweep ing
f laws
19 18
stim ulation
马来 西亚
- $
z ach
一 面
大 街
春 季
省 份
over time
mid west
advis ing
negative ly
mut ations
% -
d w
d ll
j ed
n ach
o wed
也 为
见 的
ther m
ound ing
down side
历史 的
regul ator
inf used
minimal ist
2 b
r b
花 生
on set
ex clude
see kers
paren tal
pon der
博览 会
i pe
優 質
bro s
exp on
mp tion
charle ston
p oured
t ically
破 解
规 章
10 24
33 3
tid y
juven ile
p ivo
y ay
is en
refer enced
compar isons
图 文
购 房
er able
be ad
mar cus
che ers
ah med
tes la
???? ????
n ak
創 造
回 国
夜 间
al lot
ho b
exp ired
sat an
人为 本
minne apolis
d us
j ing
余 年
物 体
疲 劳
词 汇
适 量
field er
paralle led
exemp tion
网站或 个人
原 材料
降 水量
ha gen
dr ones
dev on
burn er
andre a
ivers ity
i h
t int
u bi
分 数
明 代
素 材
露 出
new com
number ed
econom ically
assist ants
一般 的
belong ings
embroider y
rede mption
一 方
let tu
accum ulation
主干 道
真 實
艰 苦
ro p
co ws
ant ivir
rel ent
som er
enclo sure
upr ight
彩 金
am use
合作 的
counsel or
不 行
五 月
强 劲
法 制
cy n
一直 是
合适 的
chemother apy
更 快
發 表
ge ek
pe sts
wa king
rest oring
text ured
pair ing
anti body
亿元 人民币
专 属
呈 現
回 事
微 笑
拿 着
援 助
18 4
已经 在
broad ly
va ult
manip ulation
sla very
s ack
s ler
下 游
用 手
， ”
counter parts
不错 的
fulfill ment
levit ra
n ip
n hl
t ents
引 用
牢 固
珠 宝
缓 慢
fl ames
pur ity
gal a
消费者 的
1980 年
各 式
学 子
斯 卡
蓬 勃
here by
dec im
prepare s
农村 经济总收入
percept ions
r pg
到 期
14 00
polit ically
mort g
exceed ing
desper ately
sadd le
东 风
中 毒
十 年代
原 有
环 比
男 生
21 世纪
anony m
姐 妹
的 具体
粉 碎
过 敏
man eu
inter fer
sum mers
也 都
知 的
re z
at in
id ol
ma har
sub urban
argu ing
有关 规定
spread s
物业 管理
户居住 砖
r ill
宽 带
描 绘
ar ians
ud ed
ful fil
lower ed
bb ies
♀♀ ♀
gon z
geome tric
femin ine
或以 其他方式
供 水
养 成
在 职
提 问
收 缩
alcohol ic
1987 年
bould er
兼 容
射 击
市 人民政府
新 高
离 不开
聲 明
酒 吧
con cise
he ars
需求 的
bright on
trou bled
stri pe
sink s
范 畴
st arch
ho d
je alous
show room
cris py
subur bs
協 會
调 试
退 款
man kind
cost ing
stock ed
routine ly
prob able
t roy
妇 科
can cers
mem phis
球 迷
要 点
lo e
where by
reflect ions
visual ization
优质 的
团 购
平 常
征 收
简 洁
辦 法
in ception
po res
real ization
perce ive
enzy mes
caut ious
区 间
的 通知
私 家
精 湛
讲 究
re produce
sh aking
ment ors
carol ine
aero space
d ana
n vid
位 居
分 鐘
命 名
no sis
ep i
hal if
na use
e there
上 演
后 再
差 不多
战 术
pl ess
man ia
ber ger
water fall
testimon ials
单双 号
pe tal
pol es
lu is
选择 了
少数 民族
出 栏
指 控
艰 难
让 孩子
论 述
起 诉
24 4
c x
百 货
膨 胀
证 监会
hard y
的一 款
环境 保护
partner ing
distr acted
驾驶 员
直 流
简 约
計 算
邮 政
题 目
bl on
back wards
cond om
grand ma
tag on
fu zz
wrink les
b h
参 照
散 热
暗 示
的 白
隔 离
con tests
pr ix
ens en
har i
origin ated
blan kets
升 高
ol ar
cr iber
reli ed
crafts manship
决 议
治 安
碰 撞
精 緻
co ping
19 34
gar ment
ref lex
account ant
什么 是
rom ans
fu me
extr as
amb ition
告 訴
审 美
的 的
红 军
ag net
new port
目前 已
rot ate
我 司
投 保
in adequate
li by
ann on
install ment
slic ed
c z
z hang
協 助
压 器
姆 斯
校 友
育 人
说 到
hu g
pc b
yu an
tok ens
ass ay
自行 车
inaug ural
dis posed
accoun ted
支付 宝
acquis itions
suscept ible
p pt
不 承担
噪 音
此 事
的 需要
un ic
scan s
confidential ity
买 家
了 许多
二 氧化
合 一
值得 一
leon ard
q c
網 友
腹 部
in tra
mi to
announ cing
snap shot
forecast s
5 k
un available
pat ric
专业 化
depend ence
sl ack
pour ing
/ >
г о
全 区
华 南
持 久
or ang
ir is
sat in
生产 企业
compress or
可靠 性
embodim ents
deta ch
hawai ian
] ，
j agu
q l
数 千
调 味
进 度
un categorized
pro state
fr ances
ss d
第一 批
rum ors
utter ly
cypr us
d ame
上 千
个 人的
先 行
副 院长
新 车
討 論
ir i
me yer
ip h
may a
80 年代
值得 注意的是
energ ies
d azz
一 会
在 地
網 頁
银 河
震 撼
领先 的
c aves
e cu
創 業
忽 视
我 会
路 灯
refer endum
fabric ation
gd pr
itiner ary
f lot
t ate
持 股
有 任何
毫 克
的 自
道 具
ar cade
le eds
gener osity
run way
flu ffy
antioxid ant
不 满
两 者
有 力的
请 您
serv iced
ten se
sk ating
scal ing
canad ians
brad y
phar ma
robot ics
sacr ific
squir rel
2 17
放 射
洽 谈
14 8
council s
有一 天
户居住 于
b az
的 眼
ir r
16 9
stret ches
知名 度
fau cet
municip ality
商 会
com a
gr if
ser en
pre valent
gar ments
2019年 10月
i am
分 裂
子 上
护 肤
温 州
的 思想
un happy
do ve
reg ain
环境 的
prepar ations
5 80
k icking
勇 敢
各 有
实 惠
整 机
电 台
职 员
若 是
製 作
雷 达
pro tagon
el ong
crash es
roman ia
prosecut or
h ust
了 起来
偶 像
自 从
super intend
break er
medic inal
guess ing
auth ored
人大 常委会
被告 人
d ill
t l
外 形
廉 政
热 的
ab i
ie tal
ca es
che w
xt on
22 2
relig ions
isa ac
indul ge
k ang
o asis
合 计
當 時
ann ah
star bucks
fire wall
comment ing
标志 着
twist ed
biod iversity
他 认为
光 伏
多 为
拉 克
硬 度
系 数
pr adesh
car a
plo ts
chev y
人 生的
烦 恼
饲 养
we ave
direct ive
explo sive
presid ency
在 這
闻 名
f d
外 语
洁 净
ol ed
iv ities
long time
liqu ids
domin ate
人 间
忽 略
车 位
这 件事
进 村
bar ack
bust er
budd ha
mistak en
g sm
南 宁
智 力
ex cer
end ure
col lateral
custom ization
gla zed
小 麦
維 護
防 守
un paralleled
friend ships
广泛 应用于
) "
b tw
y d
上 帝
分 別
显 现
聪 明
lo af
ren d
企业 管理
ik h
自然 的
privile ges
stephan ie
lettu ce
你 們
其 间
感 应
武 术
des cent
acceler ated
pir ate
volley ball
中 方
旁 边
end angered
king ston
ca utions
建筑 物
sand ers
huge ly
一次 性
encyclo pedia
再 到
去 做
對 于
弯 曲
流 入
開 放
大学 的
final e
jud gments
第二 个
assum es
下 來
了 对
共 识
分 工
夫 妇
的 意思
走 在
除 非
15 6
vo ip
ime ter
stim ulating
天津 市
f ps
岩 石
me ats
plan ners
一 开始
很 高的
调 解
sp encer
ade la
inc idence
swe pt
快速 发展
archae ological
切 成
副 总经理
孕 妇
果 实
） 》
ha il
lear ner
sty led
学习 和
mush room
各 方面
存 量
th ie
ro sa
he tero
six ty
listen ers
sufficient ly
stack ed
5 60
室 外
的 日子
ed die
ma ge
man sion
主要 从事
compare s
mont gom
wy oming
机动车 保有
numer ical
经济林果 地
_花少钱中大奖 _
nvid ia
不 清
刚 才
日 的
機 關
通过 对
ji ang
pk 10
distur b
ninj a
億 元
dr izz
thr ust
mid i
gree ted
tv s
emerg encies
jen ny
仅 有
comp ilation
thr illing
pop corn
应用 程序
outr age
d ha
卫 视
唐 代
民 政
em ia
rest or
chance llor
embrac ed
cct v
s igh
余 名
得 多
石 家庄
li van
inter state
cal if
pur se
prote ctor
社会 各界
5g 手机
som eday
clim bed
是 可以
狀 態
my st
pot ass
pop ulated
bi op
控制 器
laugh ed
mitig ate
j up
一 层
幻 想
ta k
dr astically
rush ing
anat omy
5 12
增 进
un covered
do cs
cir cus
expans ive
prosecut ion
dilig ence
whist le
enquir y
poul try
5 70
f ies
一 番
小 康
我 市
as ap
un c
dis pose
bar nes
时间 的
scre aming
effort lessly
伴 随着
in ational
be tray
dis course
dis pers
indian apolis
emerg ence
村民 小组
endor se
mosa ic
法 庭
is se
con texts
spec ulation
won t
pun jab
oak s
7 80
d 0
互 通
八 年
双 手
同 样的
证 件
shar ks
b 1
为 客户
依 次
廣 州
he a
cas a
convers ions
前列 腺
这 套
comp ile
加强 对
yl um
montgom ery
不 愿
ab bey
hu awe
commer cially
estim ation
math s
mattress es
4 40
5 万元
极 具
直 属
so x
mac book
e lla
任 教
据 说
果 然
这 座
deb ates
anne x
consolid ated
pla que
征求 意见
5 m
o at
weight ed
settle ments
bureau cr
侵犯 了
下 调
会 被
务 实
大 脑
常 识
心 态
敢 于
旗 下的
科 室
de ple
ab dul
tr ia
qu ette
文化 遗产
已经 通过
决定 了
potass ium
h q
r gb
典 礼
壓 力
安 心
實 驗
求 职
超 出
high s
tu cked
blood y
appra isal
b ids
我 省
de ed
的一 致
voc ational
paradig m
人 被
做 得
先 端
大 选
施 行
触 摸
風 格
un aware
gl enn
text book
myth s
stag ger
三 天
审 理
录 音
必 备
教 会
穩 定
in land
ch on
sof as
pum ping
bou le
ukrain ian
f oul
h ik
区 分
山 市
留 意
pal mer
平台 上
pul p
contract ed
成立 以来
electron ically
slo vak
caf es
condu ctor
特 尔
and o
ul us
pl ugs
ign ition
host el
pac kets
他 和
但 这
你 就
去 的
因 其
干 预
留 下了
睡 觉
稳 健
po ons
ta int
患者 的
obed ience
. (
征 集
的 优势
装 箱
met adata
din ners
6 px
t f
專 家
得 分
整 體
的 概念
詳 細
任何 媒体
系列 产品
gall ons
priest s
) )
一 站式
的 建设
颁 奖
oun ces
war fare
feed er
zz le
于一 体的
metap hor
chry sler
住 院
正 確
的 反
的 现象
by tes
effort less
knit ting
年平均 气温
除此 之外
8 44
n il
v re
失 望
有 意
贵 族
id y
ind a
program med
termin als
bb ing
cc c
brad ley
anes thes
巨 头
金 钱
關 注
re venge
show cases
hy pe
imm unity
代 价
正 当
le u
ro cking
lo p
vac ations
走势 图
embrac ing
k ab
平 行
紫 外
day time
控制 系统
prist ine
emeral d
p to
副 部长
原 来的
忠 诚
最 多的
较 好的
head quarter
产业 化
circumst ance
c ud
和 使用
开 采
装 配
the ological
re called
ut en
col li
gg ie
pret end
了一 系列
david son
固定 资产
neglect ed
副 总裁
效 力
通 路
real tor
cro re
harm less
】【” 】【
均 由
家 公司
起 的
ber k
19 29
car avan
self ish
fil med
dan cer
diplom atic
í a
來 到
er adic
pe b
cho oses
song writer
ow l
defect ive
stair case
v t
使 人
工 委
操 纵
的 速度
的 最大
还 不
gu it
ba thing
ny se
consci ously
borrow ing
ambul ance
e ater
就 已经
的 年
re hear
un s
nam ing
26 4
198 2年
execut ing
全 校
大 专
子 和
the l
30 5
14 7
compan ions
高度 重视
1 px
善 良
， （
jama ica
任 命
做 大
各 部门
扣 除
阵 容
ne th
fer nand
ign oring
la k
pan cre
实际 情况
sad ness
evolution ary
到 处
奇 迹
报 刊
致 富
身 高
cr acking
18 9
contin uation
christ ine
cred ible
anti bodies
bum per
burn t
thick er
adela ide
困 境
疑 惑
选 项
et t
wood land
awa iting
bou quet
deliber ately
compart ment
列 表
加 州
转 贴
进 修
rat ios
destroy ing
brick s
n ac
不 安
是 通过
部 级
st aging
op athy
ev o
int ends
文化 和
vio let
adventur ous
国 度
女 神
感 知
排 出
瀑 布
的 山
脱 离
規 模
金 牌
op ath
od ont
dis cour
pat ched
科技 大学
skin care
haz el
diabet ic
笔记 本
b im
剖 析
可 分为
品 味
在 那
can ce
ye p
lin ers
pra ised
高质量 发展
endor sement
contamin ated
dio ces
派出 所
g pu
为 0
入 门
划 分
st enc
un healthy
mort ar
实践 中
厉 害
皇 后
等 行业
蛋 糕
put in
17 7
vi i
sick ness
gentle man
dispos able
obst acle
icult ural
mete or
k ath
会 对
埃 及
社 區
键 盘
bl adder
14 6
pain s
span ning
pav ed
silhou ette
呼 吁
心 得
的 音乐
起 来的
60 s
hop kins
rev ital
l of
正 义
沙 漠
生产 基地
renov ations
" :"
1 万
g st
u do
余 额
展 望
ad rian
out patient
av ian
19 28
conf eder
trust s
subs criber
lod ging
kee pers
kilome tres
plur ality
威 尔
版 權
率 达
or ia
is k
ly wood
john s
ug anda
公安 机关
兒 童
处 在
小 平
自 有
都 需要
ar se
con nor
mon ary
organ ise
16 7
und ere
土 路
康 熙
洞 藏
st ig
om bo
up wards
work sheets
pop ping
enhance ments
brush ed
吉林 省
dolph ins
pok é
g av
病 变
go ss
ous es
专业 技术
195 6
带领 下
empower ment
antioxid ants
unbeliev able
c ca
с о
丝 绸
吉 祥
舉 辦
记 住
syn th
bun ny
insist ed
melo dy
5 40
】 。
失 去了
景 色
楼 盘
民 事
食 堂
su ed
mu ham
h ers
教 師
现 货
非常 好
prevent ive
时期 的
pine apple
争 夺
作 業
第 5
等 功能
缴 纳
除 尘
it an
news letters
copy ing
chick ens
kr ish
bapt ism
时必须 注明
三 位
的 1
诠 释
or phan
li k
he ed
iz on
inform ational
sul livan
project ions
mit t
strateg ically
dur ham
成熟 的
可持续 发展
l aps
取 决
变 化的
面 對
over s
ju ices
master piece
boo ster
analy se
- ,
餐 廳
sof ter
instruct ed
w ski
不 幸
在 日本
就 把
盲 目
间 接
30 3
favour ites
速度 快
troubles hoo
zim bab
用人 单位
下 行
充 值
可 根据
在 国际
比 利
裁 判
还 存在
钢 板
an om
the ses
co hen
pal ate
m ri
n go
s ally
不 当
share point
研究 和
cab ins
rain fall
医 保
情 人
摆 脱
救 助
軟 件
ign ant
fire arms
complain ing
pill ars
军 区
越 來
con dos
ap pl
cur ator
fur t
credit ors
充分 利用
fiction al
sr c
remark ably
draf ted
但 由于
又 名
发 热
在 前
离 退休
繁 华
起 步
追 溯
ve g
ac ity
du cks
flu ids
a ires
h acking
之 美
并 通过
购 置
较 强的
email ed
1958 年
线城市 增速
reluct ant
j ill
m ick
插 入
al fred
am or
su shi
con quer
co res
销售 额
cyber security
ctr l
esp n
台 中
媽 媽
特 的
就是 要
roof top
取得 的
chat ting
anticip ation
航空 公司
dub bed
zimbab we
互 聯網
火 山
聯 合
货 运
食 材
mon ast
mb h
trib un
3 万
y ale
可 选
in sure
wind sor
生 效
科 大学
適 用
集 群
al to
其他 的
所以 在
counter top
bond ed
反映 了
unes co
辽宁 省
cambo dia
" 。
g w
全 天
感 謝
至 上
践 行
de z
end uring
la bell
17 00
terror ists
thrill er
9 000
v and
我 很
枢 纽
19 27
gest ure
emphas ized
depress ed
cathe ter
glow ing
det ention
rul er
以 内
进 来
ten th
了一 场
speed y
chor us
主办 的
c ag
g love
含 义
铝 合金
as ylum
19 14
ang a
gree t
symb olic
predomin antly
s ach
七 年
大 事
ad vers
un pleasant
pres idents
sur plus
ven us
产品 在
职业 教育
一流 的
网站或个人 未经
三 维
是 怎么
球 场
te h
15 2
cu bes
广泛 的
cav ity
深刻 的
brac kets
旗舰 店
转贴 或以其他方式
g ast
n ou
出 色的
活 泼
職 業
jo an
15 8
depth s
script ures
3 70
中 旬
人 次
必 定
性 感
排 查
数 值
辖 区
ter ra
la z
lot us
hy der
dep icted
beli ever
rang er
draf ting
幸运 快3
l li
别 人的
北 大
开 辟
拆 除
達 人
都 没
服务 于
discover ies
filter ed
明确 了
wand ering
ultras ound
不 便
宽 松
su ms
iv y
gil bert
bann ers
venezuel a
n ah
但 其
奠 定了
廠 商
方 可
爷 爷
ren ts
good ies
real ities
ste aling
cup cakes
tempor al
volat ile
prolifer ation
0 x
媒 介
恋 爱
愉 快
沉 淀
过 后
er in
ge ars
rest s
mail s
price y
catch es
photograph ed
在线 观看
( -
p ag
r ances
v lad
並 且
優 勢
内 科
性 地
per me
entertain ed
保修 政策
i is
l ur
关 爱
出 手
省 长
隨 時
ok o
ck land
des ks
don na
frame works
ornam ents
nons ense
в о
不 应
两 条
將 會
马 拉
19 17
val ence
资本 市场
quot ation
之 心
指 令
畢 業
直 观
罚 款
ing er
it ures
tim othy
flo p
什么 样的
学习 的
引起 了
fare s
recess ed
d 1
手 表
白 菜
赌 场
asp ire
facilit ating
外国 人
e q
下 列
不 时
姿 态
就 没有
的 文章
负 荷
门 票
com positions
ha unted
fer tility
plan k
14 3
指导 下
1月 1日
研讨 会
endors ed
empir ical
ab sur
com promising
br om
need les
eng ers
class y
exam inations
social ist
许多 人
kar l
judge ment
z oning
减 排
到 现在
月 经
生 態
由 中国
的 价值
话 说
os cill
任何 人
farm house
i ques
л ь
剧 本
彰 显
总 值
恶 劣
ob server
vol vo
national s
cu ban
cel tic
bloom s
reconcil iation
s ask
半 岛
青 山
sand s
gad get
" ?
上 方
冬 奥
明 亮
端 的
英 國
sc iss
广东 11选5
с е
百 科
督 促
視 頻
转 会
cr ied
termin ated
inste in
plu gged
embar k
外 贸
競 爭
no ah
ref ere
aur ora
j n
r ite
亲 切
長 期
cr ist
16 3
rap ids
bid ding
ignor ance
thermost at
名 誉
的 比例
me lon
ey ed
flaw less
guine a
h of
l ump
动 手
限 度
es sex
ic ular
ch ak
clear er
phenomen al
beng al
及 時
开 除
该 项目
list ener
glo s
的大 小
原因 是
shed s
pig s
moroc co
p cr
卡 通
操 控
紫 色
he ct
30 8
26 5
财政 部
biom ed
坚 守
静 脉
is p
le agues
form ulation
med als
经济 效益
commit ting
spot ify
podcast s
borrow ed
4 a
偶 然
几 何
应 在
教 导
測 試
肉 牛
le a
day ton
15 9
subject ive
consequ ential
retain s
固定 电话
calibr ation
л и
但 却
非 凡
ol in
ab original
master card
1 项
z ur
了 个
柔 软
re funds
ro chester
au ckland
自己 在
198 3年
confron ted
取决 于
不 等
和 对
找 不到
步 入
im perfect
un familiar
insur er
smo other
证券 业
p ant
入 侵
大 致
神 话
薄 膜
铸 造
we eds
li abilities
sh ef
cl are
mar co
trans cript
purch aser
grad ing
slow ing
举办 的
课堂 教学
deleg ation
bib lio
carbohydr ates
n ant
又 不
改 装
無 論
ist ically
resid ual
12月 6日
theat ers
sig ma
云 计算
六 大
国 资
总 建筑面积
走 上
su ction
ev an
serv ants
down ward
设计 和
indirect ly
t aper
党 政
华 盛
在 这种
授 课
ad en
大家 的
4 60
r ina
他 也
奔 驰
汇 集
du ctor
dis cs
their s
wa de
hur st
accident al
declin ing
inqu ire
o de
两 天
占 领
坚 实
权 限
的 重
method ist
精彩 的
peters burg
repet itive
c 2
ا ن
付 费
模 糊
的 最新
行 使
ver te
un predictable
op press
must ang
cro chet
jes se
mad ness
receip ts
9 60
u to
候 选
時 尚
私 募
等 各种
美 味
al as
ha ge
por sche
before hand
环境 下
营业 收入
副 局长
口 的
拼 搏
椭 圆形
離 開
高 通
the e
coast er
preced ing
a the
x 7
倒 入
助 手
精 美
衛 生
wor ms
em powered
17 4
sou ven
22 9
学生 在
iso 9001
jef frey
vouch ers
aston ishing
croat ia
boule vard
关 税
判 决
板 材
煤 矿
要 么
al right
内容 包括
otto man
regress ion
s way
不 容
在 我国
方 形
面 膜
fore closure
call er
大力 发展
fundra iser
clou dy
temp ted
physio logical
上 映
热 线
组 的
book let
ket tle
ton nes
cook book
homes chool
欢迎 来电咨询
2 18
几 种
副 校长
越 大
遇 见
le tal
id is
ben nett
elect rom
extr av
出版 时间
louis ville
attach ments
fascin ated
hyder abad
e ly
k art
p 1
情 景
解 锁
he ir
far ther
学生 们
accomplish ment
所得 税
v ga
μ m
之 称
博 会
登 上
该 校
at al
be a
de trim
amp ed
compreh ension
vine yards
[ ]
刪 除
发 扬
總 統
评 级
ar isto
ib u
19 11
different iate
pass ions
mun ich
spokes person
biz arre
mortg ages
l ava
剩 余
套 装
容 积
工 序
新 西兰
无 意
an or
car bs
arch e
ear l
14 1
pop ped
是一 名
repe ating
brief ing
官方 网址
allevi ate
出 货
當 地
my ers
char tered
tax able
进一步 提高
dar win
suspect s
t apping
出 自
发 改
城 的
的 政策
em pt
10 am
fre ak
经济 增长
享受 三包服务
inspect ed
toxic ity
troubleshoo ting
又 能
司 马
最 准
00 万元
tem po
hair styles
shut down
一 辆
取 出
易 于
长 久
ig or
fast ing
phys i
数据 的
flash ing
详细 内容
predict ive
confir ms
" ...
富 含
等 内容
筛 选
逐 年
de eds
co pen
15 7
500 强
bel gian
徐汇 区
向 往
四 十
团 员
披 针
独 具
退 貨
ac ro
em boss
mit es
17 9
ba um
生产 和
提升 了
cum ulative
truth s
pun ish
gut ters
出租 车
expir ation
将 被
模 仿
的 同
me gan
20 9
gener ators
similar ities
screen shot
结构 性
histor ian
积极 性
divid ends
f ür
妥 善
有 一定
权 重
色 素
work sheet
19 32
tur quo
respect s
ow en
与 发展
军 人
名 家
好 奇
ch enna
am al
un ci
text iles
administ er
arm strong
collabor ating
2 k
廉 洁
推 進
极 限
等 信息
门 窗
ex agger
bo sch
af fl
19 31
科学 与
bour g
shar pen
生物 学
compens ate
在使用 时必须注明
牢记 使命
的 下
草 案
wi den
so ils
主要 包括
记者 从
举行 的
fundament ally
名 叫
因 子
奢 侈
為 主
設 施
id le
us ability
coun cill
mp g
tu f
行为 的
treas urer
纪念 馆
本网书面授权 不得转载
6 60
b g
乌 克兰
外 加
好 多
庞 大的
本 品
温 和
相 传
en za
ine quality
coun selling
ron ald
crit ique
足够 的
stev ens
最 終
聯 系
al ot
al tar
ter a
tr aps
str ives
americ as
integr ates
个人 信息
ec lect
3 亿元
5 厘米
多 么
总 会
我 有
ar nold
con n
可以 看到
发言 人
在 网上
convert ible
harvest ing
degrad ation
u ma
人 們
会 展
升 降
多 万
执 业
認 識
议 员
部 份
难 点
che ek
equ ations
组织 实施
hall way
transmit ter
届 时
总 人口
的 时代
wn s
18 7
nor ms
ken ny
star ing
capital ism
navig ating
真实 的
aspir ations
转贴或以其他方式 使用
v 8
分 成
总 投资
负 债
难 道
ar rows
my an
ann i
已经 是
制作 的
mole cule
turquo ise
1 号
5 亿元
公 式
各 样的
dr ake
experiment ing
astron omy
humming bird
5 人
公 社
技 艺
fer gus
sup porter
gram my
科学 的
tor ch
gal van
capac ities
valid ate
lever aging
radi ant
robo tic
m h
周 五
en amel
not ting
我们 就
issu ing
visual s
illustr ator
上述 来源
supplement al
intu ition
本网书面授权 的
f lakes
е r
常 态
流 行的
篇 小说
背 面
著 有
首 位
re active
re payment
pro ps
learn s
specific s
代理 商
jackson ville
已经通过 本网书面授权的
在使用时必须注明 上述来源
产 地
失 误
尔 德
无 可
每 人
ar bor
con fined
co operate
pre heat
bill ed
jan et
insp ires
规范 化
sight seeing
digest ion
fertil izer
huawe i
海 内外
的 其他
跌 幅
per fume
lat ex
pitch er
scar f
reminis cent
促 進
家 属
并 提供
钥 匙
man tle
ty res
已经 有
consult ations
format ting
export ed
理事 会
neighbour s
cous ins
inher ited
亚 马
并 有
ed mon
per secut
fun k
hy de
understand able
生活 在
rose mary
x e
开 端
波 兰
轻 易
高 血压
hur ts
asp iring
开奖 结果
1080 p
amplif ier
( '
内 有
勇 于
开 车
從 事
而 被
sed iment
hend erson
有线 电视
emir ates
expon ential
等 特点
羽 毛
耳 机
ill es
mod al
y emen
一 键
勇 气
王 国
階 段
ed ible
ill as
sur render
创新 的
eco systems
transl ates
istan bul
多少 钱
理想 的
值得一 提
absur d
l ut
n apo
为 期
之 作
完 了
捐 赠
的 爱
inter rupt
share holder
必须 要
onco logy
headquarter ed
н е
烹 饪
看 得
ve in
ci ous
30 2
17 6
stain ing
商业 银行
orient al
nest led
gaz a
b ending
做 事
企业 在
的人 们
tun a
ambit ions
国家和 地区
并 为
更 能
联 想
行 走
鉴 于
is an
exp ands
ju icy
一样 的
brush ing
affil iation
prince ton
broker age
sque ez
5 毫米
u ated
不 符合
放 下
门 槛
sh ack
gr aves
min ers
10 万
look out
22 8
合作 社
fran co
rans om
c w
l ain
v om
x s
探 究
ne al
ard on
land lords
laugh s
mig rants
rab bi
niger ian
municipal ities
guit ars
千 里
通 话
ca ust
lect urer
bio s
代表 团
严格 的
escap ed
impair ment
那 麼
首 家
ent a
can ned
sed an
correct ions
生态 系统
程度 的
meado w
grif fin
monast ery
u ate
三 产业
买 了
仿 真
她 说
的 总
矿 山
to wing
iz zy
dis charged
cal vin
oc ular
mater nal
能够 在
培训 班
straw berries
millenn ium
实 物
集 贸市场
ver izon
com o
mon ica
top ical
独立 的
本身 的
supervis ors
上 学
在 香港
小 程序
成 语
打 工
抵 押
远 的
除 外
香 味
mo sque
ship ments
14 2
不同 于
kle in
eclect ic
myan mar
升 級
展 出
意 向
无 所
核 算
規 範
re places
be g
ac custom
we aving
row ing
bi ol
resid ences
培训 机构
crash ed
出 演
学 金
本 市
的 有效
的 最佳
in flat
man tra
dif fers
sim ulations
bar ber
新一 轮
单双号 限行
中 冶
倾 斜
新 产品
是 谁
男 士
的 名字
议 会
轮 胎
la ur
less ness
led s
bre tt
grow ers
ker ry
communic ated
科学 发展
ell is
profic iency
主 動
另 一种
深 耕
随 即
om es
with standing
ant im
bl vd
cur se
ligh thouse
pal let
stimul us
开元 棋牌
l atch
制 约
去 看
对 他
小 儿
此 刻
熟 练
鼠 标
ig a
go re
ice ster
ted dy
che z
establish ments
orth odont
temp ting
sneak ers
surviv or
superintend ent
h anna
已 实现
户 籍
板 的
火 锅
面 包
pr ague
mon k
exp ire
host ile
precip itation
muham mad
р и
也 會
将 为
规 矩
per t
wor sen
sim ulator
bir ch
condition ers
station ary
rob ber
viet names
revers ible
dee pest
( #
始 建于
最 快
un ction
can ton
can oe
commun al
sty list
上 看
漏 洞
dis gu
12 个
case y
event ual
certain ty
就是 在
question able
sle pt
党员 干部
provin ces
resign ation
特 有的
ang led
tu ber
myster ies
lean ing
ili br
dian e
原 名
名 片
岁 时
揭 示
收 盘
旋 律
每 個
湾 区
自 学
； 《
and ro
保护 区
liquid ity
wy n
1978 年
evap or
vietnames e
u f
立 案
on na
lit re
nor folk
mit igation
sen ators
success ion
embroider ed
% （
一 種
后 勤
水 上
约 1
而 非
co o
bro cco
vit ality
jun g
gather ings
blu ff
welling ton
l ashes
分 开
刑 法
只 不过
大 国
an cer
al ge
】【 】【
med iated
enc ia
tail s
sun screen
但是 在
flood ed
质保 时间
d ives
拖 拉
的 平台
陪 同
in as
ro gue
un safe
res ides
do cker
cr ay
中国 联通
scar ce
intr ins
chenna i
不 予
做 什么
反 射
指 導
气 管
的 健康
par ado
wal d
很多 的
aver ages
hosp ice
朋友 们
brown s
harvest ed
d ictions
一 阵
乳 房
小 吃
气 势
游 戲
計 畫
註 冊
陆 军
in famous
研究 成果
solid arity
vacc ines
recept ors
stum bled
描 写
集 装箱
ex changed
fl an
down time
law suits
wall ace
scholar ly
apol lo
brocco li
e man
i ya
性 好
拯 救
變 化
陈 列
in do
sol der
mor pho
sl um
transl ations
举行 了
millenn ials
flot ation
年 会
感 和
的 成功
竣 工
胎 儿
飯 店
ur u
tr ous
port ed
sa as
sa una
信息 系统
foli age
coating s
l ass
与 之
no ok
over look
cour ier
mor ph
wed ge
理论 和
正常 使用
创业 者
wes ley
stub born
3 90
j ag
經 理
ma i
ia z
clo cks
fa ulty
econom ist
是一 件
这样 一个
repli es
披针 形
兼 任
易 懂
be hold
工程 建设
进入 中国
lad en
充分 的
aqu atic
juris dictions
5 pm
z est
л е
н ы
现 为
老 化
as us
ap is
out ward
ob li
success or
fish eries
hun gar
civil ians
idel ity
e i
了 不少
亲 戚
执 政
这 首
10 分钟
hand crafted
sweet ness
facilit ated
tact ic
预测 软件
转化 为
preach ing
capsu les
1949 年
synon y
h ated
人 身
冰 雪
火 焰
着 的
od ys
direct ories
mal ta
manage able
ballo ons
attent ive
jup iter
售 出
怎 样的
是 如何
查 詢
海 水
物 种
越 高
sh al
sp it
15 4
di arr
ben ches
hal t
可能 會
rom a
cliff s
descript ive
t о
减 速
区 政府
平 静
承 接
旅 程
更 具
边 界
de en
we et
ling er
clean se
ju g
plant ation
todd lers
s ory
书 写
克 力
大 會
推 廣
通 电
al ar
sy no
high ways
after math
protect ions
进入 了
5 10
s ley
变 速
大 片
尤 为
是 国家
火 星
19 12
40 4
maj ors
生产 经营
master ed
viol ate
ets y
negot iated
quir ky
benefic iaries
congest ion
antivir us
日 语
等 因素
en ers
pass ages
管理 办法
live lihood
click ed
scal able
syn thes
知识 和
集中 在
dent ists
gla ze
stitch ing
bom bs
eros ion
w b
培 養
大 方
精 益
pe a
hol mes
fine ly
咨询 服务
alter ing
pup il
slip ped
mold ing
lob ster
foren sic
三 月
业 余
县 政府
聘 请
po well
ens is
car roll
15 1
ped ago
super hero
pi ke
领导 下
irr itation
y as
又 一
尔 夫
柏 林
信息 服务
revis ions
juli an
boe ing
n en
p iv
大 夫
届 中国
很 久
综 艺
up front
poss essions
super natural
之一 的
stress es
beginning s
shel ters
raz or
splend id
b ist
巧 妙
整 车
ing est
sub division
ring ton
touch down
rac ist
cam per
slip per
plum ber
pale o
2 m
f eng
v ue
一 向
只 会
名 师
固 体
天 文
未 知
玩 的
突 击
un anim
ident ities
mom my
young sters
mut ation
当地 时间
suff ers
patric ia
b ies
体 质
千 瓦
違 反
me ll
au ctions
scr um
depos ited
ceremon ies
1 x
支 柱
特 斯拉
的 传统
部 部长
防 爆
br igh
24 5
教育 和
交通 便利
frag ments
所需 的
c ation
m ie
w av
名 义
消 灭
郵 件
man ic
dr ap
中国 科学院
显示 屏
shim mer
宣 傳
欲 望
珍 贵
男 友
運 營
重 型
provid ence
mail ed
auto mate
70 周年
nom inations
gib son
parado x
j k
s war
不 妨
光 泽
出 门
流 域
耐 用
量 子
en ame
for bes
ex cus
dis solved
16 4
sco pic
stock holm
spiritual ity
不 被
出 身
所 未
才 有
病 例
bo ating
au top
ster one
equ ilibr
目的 地
guitar ist
下 属
偶 尔
医 科大学
我 院
村 的
牡 丹
ag ility
30 6
special ised
separ ator
nutr itious
bil ateral
q t
套 餐
导 游
日 记
－ －
bet ty
bre vi
nov ice
了一 次
bul ls
bag gage
stream line
coast line
remind ers
有些 人
confir ming
opio id
accustom ed
\ '
c 1
工 藝
浓 郁
的 农户数
考 試
舉 行
in fan
he mis
fr a
dy nasty
announ ces
rep ent
naz i
国土 面积
一 经
严 厉
利 于
在 他的
热 闹
絕 對
起 源
or ted
sli der
calend ars
insight ful
whis key
edmon ton
p im
作 出了
稍 微
pr ag
west minster
的一 年
manufact ures
detect ing
illum ination
pharmaceutical s
dolph in
v ase
x ic
与 管理
农 场
官 兵
温 柔
生 肖
议 院
调 动
le h
pl ag
ha o
ms c
最后 的
astron om
fla ir
amid st
吸 附
引 人
情 怀
芝 麻
那 一
en sured
ar lington
team mates
dig its
为了 让
condom inium
undere stim
p its
以 后的
作 的
油 画
玛 丽
read iness
bre eds
mic key
redu ctions
moun ts
guard ians
流动 性
methodo logies
reson ance
sincere ly
scrut iny
二维 码
к и
早 晨
更 名为
蜘 蛛
his panic
19 19
over weight
cal ming
cap tion
dy lan
科技 成果
cross es
这一 切
fabric ated
pitch ing
空气 质量
cultiv ate
契 机
护 士
着 重
量 身
默 默
齿 轮
con cludes
shop per
35 00
思想 政治
calcul ating
普通 的
制定 了
groom ing
v ag
加 重
局 限
布 鲁
笑 容
自 愿
pat ter
mal t
过程 中的
dan ie
部门 的
vic inity
mol ly
propag anda
黑龙江 省
a be
g ag
台 阶
扩 散
教 科
辈 子
re boot
school ing
six teen
pul monary
commod ities
penetr ation
的可能 性
chandeli er
_花少钱中大奖_ 广东11选5
幸运快3 预测软件
copen hagen
幸运快3预测软件 最准
g hest
v ah
中 秋
隱 私
for ged
ac ter
ip a
marke ted
nur ture
profic ient
semicon ductor
2 g
m é
n k
下 面的
不 怕
低 的
在 山
峰 会
是 他
最 小
湿 地
的 发生
00 am
af a
mon roe
hand held
22 3
extre m
bum ps
weak er
weigh ed
chun ks
担 忧
斯 的
给 出
se bast
fe lon
tw il
step h
marvel ous
中 奖
海 峡
的 办学
de preci
cr ative
hu ang
23 7
vac ancies
注册 资本
butter flies
pitch ed
示范 区
borrow ers
s lu
筹 备
mine craft
catal o
合法 性
不 定
中 学生
带 给
的 数量
確 定
编 剧
ma e
ton er
den ying
p ont
上 世纪
开 口
拉 开
阿 根
al gae
ar ta
le icester
der mat
read able
ban quet
管理 制度
17 3
拥有 电视机
之前 的
cere al
dun can
v w
主 教
提 及
蒸 发
bu ys
stand alone
ble m
state wide
flo ck
sales force
stall s
chlor ide
swee ts
不 明
尸 体
结 局
qu i
ph al
after ward
24 3
aver aged
valid ated
安装 固定电话
硕士 研究生
replic ation
apolog ize
a el
o ily
前 行
基 站
焦 虑
pre valence
ster oids
人民 医院
sent enced
subs criptions
colon ies
进村 道路为
5 分
k athy
原 文
考 慮
致 使
追 踪
ir relevant
var s
90 年代
联系 方式
conver ts
半 个
脱 欧
诗 词
ch ord
ap ex
ard i
cont our
mir acles
tren ding
shut ters
vulner abilities
广播 电视
palestin ians
agnet ic
v ib
他 表示
彩 神
法 令
经 联
衡 量
ab us
tell er
indic ations
的情 況
pestic ides
发 光
座 椅
海 口
近 几年
这 段
速 率
in vo
to f
tack ling
inser ts
poké mon
中 全会
之 初
以 人为本
出 品
新 年
set te
研究 人员
降低 了
reimbur sement
+ /-
2 13
乐 器
滴 滴
美 军
資 格
马 尔
高 新
ab brevi
mo ds
play back
领导 的
manip ulate
這樣 的
twent ieth
b ons
克 拉
又 在
噪 声
更 容易
用 力
站 长
等 服务
门 诊
ch unk
bo iled
bl ink
comm ute
over lap
enc ers
以下 的
survey ed
scan ned
clar ke
pursu ed
labe ling
refurb ished
cosm ic
机动车保有 量
有 过
若 您
str iving
产品 自
grad ual
fellow s
carbon ate
maneu ver
) \
p ate
p aving
v u
就 开始
是 你
管 辖
per imeter
out ed
ta u
add icted
soci ology
如果 不
h ra
养 护
料 理
热 烈
生 死
菜 单
ver dict
lim ous
看到 的
2018年 10月
frank furt
养殖 业
refund able
johann es
formul as
notting ham
值得一提 的是
了 我
并 发
敬 业
有 一定的
调 度
can non
co y
air ways
精神 和
这里 的
obs ession
亚马 逊
c pa
变 频
民 办
水 准
间 隔
termin ology
wit z
replic ate
wre ath
阿根 廷
p bs
不 成
考 研
负 面
防 控
面 料
默 认
im proper
cer am
wil low
种植 业收入
博士 生导师
協 議
有 耕地
本 服務
着 手
美 特
进 化
th u
be acon
gr in
ine t
bl a
down stairs
使用 了
lu crative
tar a
影响 到
丰富 多彩
glos sy
咨 詢
我 知道
时 装
滑 雪
满 了
行 星
en coding
no isy
19 25
使用 寿命
recor der
avo red
cab bage
facilit ates
shr ine
转型 升级
外交 部
洞藏 酒
6 pm
已 完成
新 款
cook s
领导 小组
表现 为
pip ing
epo xy
biomed ical
м а
” (
以 色
六 个
女 性的
re productive
可以 说是
head set
cu es
upholster ed
上 课
为 目标
动 的
揭 露
简 历
花 的
讓 人
造 价
fre t
stream lined
vari ance
tall er
blan c
astron aut
伊斯 兰
shef field
个 股
形 的
矿 产
线 性
缴 费
us da
qu inn
sp ans
et i
可以 从
special ties
如果 没有
mes a
超过 了
bol lywood
b j
严 峻
核 对
西 洋
音 响
ne u
con ventions
all a
cl one
bl air
ban anas
aper ture
quar tet
cd ma
geo logical
enthusi ast
obs cure
orth op
r aven
公 有
年 輕
弥 补
pro c
ok er
ult ure
hand ler
dol ls
cam pers
高等 学校
pud ding
f aint
o lo
买 入
出 土
意 愿
把 他
正 能量
臺 灣
颁 布
ut c
pre cautions
mar rio
real tors
sl ick
psycho logist
tort ure
comfor ting
epide mic
3 次
》 ）
小 学生
或 拥有移动电话
把 自己
犹 如
率 领
記 錄
re m
sal em
生活 方式
jum ps
rib s
whit ening
batt ling
亚 太
凸 显
反 思
基 准
年 降水量
无 缝
an cho
fig ur
tu bs
da isy
南 极
历 代
al monds
mode m
万人 次
atom s
teas poon
dere k
r ude
主 打
务 必
孤 独
租 车
角 落
it t
ver bs
co sy
av ia
down stream
fun ky
camp uses
22 6
影响 力的
commission ers
hum our
symp tom
palest ine
f ist
t ensions
w rench
乒 乓
几 次
封 建
高 山
an them
le aking
se ized
cal e
fig s
mot to
制度 的
outr ight
inaug ur
交 汇
前 者
貿 易
這 一
im posing
sh ane
ho bbies
cl aw
fut ur
风格 的
sap ph
paragrap hs
enrich ed
p2 p
所 能
时 空
预 备
be ige
tr acy
分析 和
complain ed
nom inal
grab bing
公元 前
arbitr ary
auditor ium
inherit ance
infan try
器 和
效 能
染 色
桌 面
mon go
she a
24 8
市场 经济
vi king
four teen
mil ton
职业 技术
tut ors
prest ige
antibio tic
c do
r er
多 久
好 看
新 老
标 的
用 电
航 母
蜂 蜜
被 迫
es op
le vy
ab ide
so aking
ta ker
mar x
him al
合作 医疗
oph thal
光 荣
在 内
歌 舞
用 作
空 氣
du de
cur ing
16 6
recomm ending
地方 政府
spark le
iraq i
dile mma
拥有电视机 农户
e books
k os
t 3
党 组成员
全 经联
某 一
的 状态
％ 。
ve ll
wh ales
gre gor
team work
san ction
日常 生活
bloom berg
q r
交 警
得 益
有 色
背 后的
是一 部
tur tles
lat ino
lou ise
改变 了
tariff s
安装固定电话 或拥有移动电话
新 娘
机 等
车 身
随 便
sin us
mean ings
feather s
pointer s
3 35
应 力
开 出
得 天
皇 冠
租 金
de bug
sh annon
cru ising
honey moon
possess es
k ra
哪 怕
景 象
理 学
的 路
pol ishing
thor a
card iff
grad ient
第一 产业
account ants
sav annah
greg ory
eld ers
infer ior
voy age
orch ard
o gy
分 行
平 装
承 擔
难 得
高 性能
su spend
fr inge
ex posing
pos it
car rot
don ating
gener ously
技术 创新
24 9
bor rower
fair ness
mention ing
youth ful
inject ed
monu ments
换货 或
addict ive
pyram id
3 12
c out
w inst
和 个人
杀 人
杀 死
独 自
街 头
re usable
li zed
ab lo
chang er
已经 被
单位 的
secre tar
ordin ance
zz i
现金 流
村内 主干道
т а
其 在
包 容
爱 尔
能 不能
en ne
19 26
car cin
grad ed
dream ed
colleg iate
neur ons
rhetor ic
br aces
smo o
195 3
rand y
distor tion
自然科学 基金
国 道
往 来
抱 着
静 电
th and
he li
ich i
back ups
cal f
bas h
leg ion
wise ly
sand als
dar ling
distur bed
bod ily
) /
9 50
两 个人
使 之
房 企
自 拍
赞 同
en ic
ep ile
16 2
joy ful
mater nity
bur ton
cam el
cin ct
incident al
ornam ent
engrav ed
c ip
s ind
不 禁
泉 州
cor t
explo itation
它们 的
fron ts
k ul
r 2
s izing
z on
光 盘
命 名为
头 条
少 儿
政 权
概 括
起 重
no bel
pe i
safe st
户通 电
c pi
т и
于 一体
外 地
存 放
帳 號
得 名
突 出的
逝 世
her ald
ps is
战略 合作
4 年
b m
o va
为 2
孢 子
改 良
癜 风
綠 色
tr avis
sto le
bro ck
设计 与
内容 简介
scratch es
eleph ants
cros sover
发 电机
回 头
管 家
阴 道
li mo
li ds
sa ver
mal aria
aver aging
fraud ulent
toler ate
bother ed
nause a
之 人
低 价
和 解
很 强的
re bell
cr ad
wa vel
这种 情况
tro l
battle field
etern ity
不 存在
之 力
周 一
和 水
威 廉
转 发
car son
red s
sum mon
2019年 11月
len ovo
oph ys
goth ic
堪 称
尊 敬
急 救
时 机
an z
ol l
he f
fam ed
15 3
nor dic
教育 厅
媒体 报道
collabor ations
设立 了
nik on
glac ier
turb ine
cyc lists
predecess or
上 来
保 管
清 朝
的 经验
造 就
阻 碍
ed o
we aver
pro pane
ag grav
gr out
sp art
19 10
viol ated
regim en
从 严
分 管
声 誉
样 式
at p
wi r
im mer
not re
bi of
的一 大
ali ens
棋牌 游戏
accum ulate
十八 大
revers ed
全 乡
和 支持
在 对
溶 解
酒 精
面 部
ve ins
one l
ant ig
az er
meas urable
drain s
yama ha
halif ax
優 秀
少 许
第 6
an ch
br ag
nor d
我们 需要
16 1
suc cul
sc outs
regul ating
rou ge
申请 人
contrast ing
kil o
公布 的
b rent
g ie
n us
s wo
t ann
v ines
x 3
中 信
里 面的
风 味
ro bes
he ap
sol omon
信息 公示
resid ue
ethiop ia
f ences
口 号
恶 意
ome tric
ev id
des pair
ster oid
所有 人
rain s
imm un
加入 了
digit ally
坐落 于
blon de
5 分钟
® .
下 设
克 莱
后 台
忍 不住
明 了
牌 照
租 房
衰 老
這 次
se aside
po ets
sur passed
ming ton
用户 体验
contract ual
separ ating
diagno stics
strip ped
无人 机
lifes pan
ergon omic
c ic
上 万
天 才
山 大
民 航
童 话
风 口
no x
per tin
man ga
ben ed
review ers
附近 的
scand in
中 沙
发 性
的 角色
莫 斯科
de mean
spe e
15 年
chief s
expend itures
畜牧 业收入
5 30
f cc
來 源
播 种
粉 末
赶 到
pro py
pe w
dis crete
turn around
vi k
quil ting
mck in
carp enter
折叠 屏
epide m
whirl pool
d iana
之 情
去 找
在 哪里
戏 曲
饱 和
co hort
mat 520
team ed
我们 也
mus cular
card inal
表现 出
日常 生活中
华盛 顿
piv ot
b lizz
k ata
p n
u ce
下 单
九 年
参 谋
和 他
落 在
较 少
st aged
un changed
ip ur
bar b
hist ories
wom ens
1930 s
glam orous
不 像
卫 浴
实 业
宽 度
陈 述
ex foli
ain ted
play list
requ is
sim pson
系统 中
打造 的
认识 到
lun ar
chim ney
a an
t and
下 旬
二 期
商 户
已 是
提 倡
该 如何
con greg
没有 人
jun ct
住房 以
finger tips
immers ive
freder ick
m vp
al ib
pro portions
can ine
cr aving
entire ty
physio logy
% ;
h ref
为 国家
失 效
既 是
负 载
集 聚
面 貌
dis placed
over see
cy an
其中 拥有移动电话
设备 有限公司
tub ing
hyper tension
bn b
vm ware
可 怕
太 后
延 安
无 穷
检 索
选 取
car at
nor ton
store y
造型 達人
caregi ver
享受三包服务 质保时间
1 次
s cars
公 积
出 境
分 割
可 用于
合 力
dis advantages
sup per
25 2
知识 的
restr ain
strengthen ed
义务 教育
hier archy
c ens
都 将
风 云
res ent
tim ed
cor inth
gu jar
cu cumber
equ als
north western
bill board
master y
apo caly
sauce pan
whis ky
收益 率
对外 开放
endeav ors
公交 车
deliber ate
demol ition
剩 下
告 别
圣 诞
样 本
神 的
粗 糙
震 荡
le opard
con ced
not withstanding
camp ground
成为 中国
psy chic
政治 局
encompass es
新京 报记者
以色 列
s per
t ir
年 6月
恐 惧
油 价
清 明
都 是一
骑 士
tr ilo
cent rally
swi vel
loves eat
呈现 出
理事 长
stap les
clam ation
rescu ed
tribun al
m ural
杀 手
沿 着
發 揮
要 做
no ir
so ber
ken neth
spring field
积极 参与
mut ually
entit le
y ah
局 局长
條 款
辞 职
up scale
enc ap
different iation
ordin arily
运动 会
fal con
phan tom
距离最近的 车站
发改 委
5 米
万 博
示 威
連 結
path ology
waste water
mut ant
enquir ies
nurt uring
一 颗
丢 失
党 校
外 卖
头 脑
嵌 入
論 壇
od er
cr us
ance stry
che ating
benef ited
consci ence
bread th
纪录 片
intrigu ed
与 社会
充 滿
同 樣
它 在
深 处
相 对于
硬 化的
纵 横
ap h
ten e
22 1
第一 名
pers ian
theat rical
本站 所有
buck le
m ue
y in
不 下
訓 練
be i
sa i
ins ol
18 6
lan caster
flow ering
ref uses
zip per
举办 了
neuro logical
一 号
场 面
失 业
易 近
机 身
民 眾
论 证
to ire
ob jection
提供 商
22 7
29 9
办公 厅
民主 党
的美 好
inject ions
农民收入 以
: “
书 的
和 企业
国 企
大 臣
字 的
捕 捉
明 顯
有 许多
永 恒
路 口
qu ie
cell ar
建筑 工程
娱乐 平台
hat red
dedu ction
cultiv ated
ais le
tou ghest
forbid den
p pm
v 4
国 会
字 母
密 的
公司 拥有
child care
mult inational
tu c
rect angle
一起 来
rf id
auton omy
ubi quit
b ain
d ances
厕 所
号 召
性 别
日 照
肠 道
commun ion
wood y
科学 研究
会议 室
symp athy
ritual s
d har
k hal
上 部
在 今年
帷 幕
演 练
距 離
運 用
gh t
ide ology
mag nets
影响 的
造成 了
alter ations
个月 的
pv t
中 考
乐 团
以 来的
你 想
沼 气
细 分
而 后
life styles
tan z
proceed ed
bol ster
psychiat ric
inef fect
6 10
l up
不 合格
中 年
也 非常
先 進
很 可能
結 束
职 场
营 商
风 采
ro tor
he in
cor nell
project or
tool kit
depend ency
bud dies
促进 了
dv ds
inf usion
trilo gy
s lab
午 餐
奶 粉
店 的
王 者
缩 小
dis position
ash i
ru bs
har ley
tool bar
fav ors
pred icting
vict ories
affin ity
x in
位 列
修 炼
推 向
白 癜风
op pose
high lands
ones elf
aud its
uk a
clin icians
集团 的
mes o
profess ions
strip ed
thir teen
remed iation
rho de
带头 人
安 德
封 面
聚 合
谈 到
靠 谱
re jo
ev ange
19 23
ble w
pan cakes
什么 时候
coll apsed
transition al
专门 的
pione ers
但 也
层 层
性 收入
斯 基
明 珠
热 量
登 入
监 理
阻 力
pe cu
cru c
gard ner
可 作为
在 与
新 农村
谈 话
路 的
那 时候
en acted
po dium
low es
program mer
hu ff
fort ress
pen guin
liber ation
volcan ic
spont aneous
pivo tal
fergus on
hungar ian
… ”
滨 海
这 意味着
ic ia
20 个
23 4
fav ored
traffic king
195 2
р у
年 末
扬 州
短 视频
in bound
per ing
anti qu
hur ting
permit ting
h ound
s lid
兴 建
吃 了
对 面
桂 林
洛 杉
观 音
订 阅
麦 克
an to
en rol
ac ious
ass es
dis connect
back splash
post age
trust ing
occup ancy
alo e
complet es
ferr ari
氨基 酸
b ard
k ot
国 二
打 包
杆 菌
軟 體
re id
ch eng
50 元
17 1
28 8
完成 的
一定 是
inspir ations
积极 的
horse power
bott led
maid en
whip ped
dys function
meado ws
3 45
j ade
南 山
敬 请
朝 廷
村 里
流 体
监 视
诉 求
al u
ia go
mat ive
sol uble
inc umb
完成 后
implic it
regener ation
imagin ative
g mbh
回 购
对 该
感 慨
酸 盐
st ash
im an
con stru
fl avored
thin ner
histor ians
syn tax
optim izing
经验 的
compe ted
rio t
marrio tt
她 是
等 一系列
肉 猪
请 及时
送 给
re calls
to te
gu ate
tra ject
18 2
water color
forecast ing
aux ili
本科 生
immense ly
abdom inal
i ating
s aga
u w
也 是一
包 围
条 约
灵 感
而 成的
道 歉
ton ic
download able
保证 了
coron ary
c apped
h ive
書 記
治 愈
纠 正
ge off
che wing
kno b
sam oa
美术 学院
加 深
脚 步
％ ，
land marks
dec isive
sat urn
wind shield
split ting
foster ing
展现 了
portray ed
2022 年
spee ches
ö r
奥 林
批 量
範 圍
结 晶
美 人
警 惕
路 由
车 载
st if
se th
un even
age ing
同时 也是
产业 的
fly ers
hydro xy
可靠 的
h bo
了 吧
以 致
变 压器
巴 基
un locked
me tre
建筑 设计
一起 来看看
tran quil
chocol ates
sd k
breast feeding
indones ian
trous ers
wavel ength
. ?
= '
q ing
和 中
商 学院
在 她
相 处
聯 絡
让 自己
這 裡
遇 到的
额 外
with drawn
str ay
ple thora
come back
fill er
anim ations
还有 一个
tut oring
365 bet
pse udo
e up
g hosts
s por
t 1
人 類
典 雅
屏 蔽
con es
pal ms
历史 悠久
mis use
jack ie
自主 研发
pione ering
adoles cents
pecu liar
农 药
标 记
等 农作物
認 證
she ar
char is
ri er
regist rar
农业 大学
remind ing
planet ary
indu ct
excur sion
seld om
amuse ment
咳 嗽
摆 放
痕 迹
的 操作
移 動
童 年
长 1
de tain
教育 学院
ref using
recru ited
elev ate
kh z
radi ator
statist ically
excus es
其中拥有移动电话 农户数
j son
s 3
位 於
其 后
受 贿
可 行
山 县
流 的
莲 花
跑 步
钢 筋
se ams
et tes
ident ifier
oc ative
以及 其他
sl aves
somer set
6 30
之 約
口 语
市 中心
心 中的
教 训
的 代表
out break
back ward
发展 战略
austr ian
aug mented
motor ola
pil es
pon ds
shing les
skept ical
残疾 人
v atic
周 知
夜 晚
安 防
抽 象
拓 宽
西 游
關 于
out going
17 2
personal ize
23 1
rh ino
d and
坚 强
尴 尬
烟 台
管 的
re built
con qu
mon arch
na go
ker ala
gg les
rip ped
sket ches
京 津
初 始
化 石
ou x
un paid
ke es
qu int
au burn
gy mn
解决 问题
polit ician
grocer ies
fool ish
fluores cent
д е
一 眼
不 分
人 格
本 期
现 有的
英 镑
at ur
we ster
per ks
pr un
发展 规划
人民 代表大会
pred ic
conce aled
manus cripts
excur sions
b ly
一 股
信 访
數 字
时 常
ap hr
生产 厂家
ses ame
之后 的
lie uten
77 7
国有 企业
不 愿意
刊 登
看 上去
lo v
sh af
che on
joy ce
past oral
可能 性
push es
random ized
feas ibility
k ite
暖 的
监 狱
让 更多
資 產
金 刚
am ents
ab used
un acceptable
je e
make over
winter s
的心 情
cheer ful
creep y
p une
族 自治
深 厚
直 线
這 麼
so aked
col m
pu bs
ligh test
ra ke
健康 发展
replace ments
compli ments
conserv atives
截至 目前
priorit ize
coher ent
k ak
上 是
刷 新
源 自
的 超
的 知识
镇 政府
ment ality
19 16
christ ie
7 70
b lower
k ather
л о
多 篇
年 10月
拨 打
ion ic
text books
一下 子
scul p
d z
l aces
p ensions
为 他
之 战
具 體
外 商
歌 词
用 餐
评 分
钻 石
ad hd
sp as
uni forms
close ts
ref usal
参加 农村
tun g
pertin ent
a 3
o ats
下 部
丰 田
低 碳
和 你
炎 症
紧 凑
给 自己
醫 師
關 於
高 低
un related
pl aster
cle ment
click funnels
网络 安全
甘肃 省
新京 报
b ile
得 出
生 机
若 有
遍 及
革 新
st acks
commercial s
甚至 是
portfoli os
劳动 者
lefto ver
h ick
于 此
六 合
民 宿
泄 漏
海 量
碰 到
sor row
distr action
eth ic
lingu istic
alge bra
k ad
军 的
启 发
头 上
开 花
忘 了
言 论
请 在
it iveness
un conscious
ok a
sp iel
mar ion
ra vel
30 分
cult urally
sil ica
行业 协会
satur days
195 1
森林 公园
igue z
resem bles
discer n
tria th
m ies
后 卫
很 重要
抖 音
理 赔
破 产
绍 兴
要 比
re bels
al arms
per cussion
wa h
bor g
sav ory
基本 的
а nd
一 所
口 岸
大 海
对 我
局 势
维 亚
oun der
ser mon
24 7
exp ires
23 6
了一 批
george town
flour ish
alb any
conting ent
华 中
婚 纱
录 像
重 生
am os
ful lest
fin nish
advis ers
divid ing
微信 公众号
murder ed
bulgar ia
l ure
业 态
就 这样
意 图
的 本
粘 性
警 示
in consistent
sh ines
id ian
dis advantage
成立 的
pil grim
公共 服务
possess ed
贵州 省
torn ado
k ris
找 出
说 起
er ik
re building
so ck
mar que
course work
mid lands
环境 中
corn wall
各项 工作
vamp ire
出 任
各 省
恒 大
指 向
指 定的
的 出现
work load
rel at
sw ick
ext in
fire fighters
birth days
gam ble
的大 力
医疗 保险
disput ed
chil ly
impe cc
在 世界
成 員
手 里
自 定义
门 的
ic c
un lawful
ne ct
ma ze
any ways
cre en
run time
final ists
aur a
感觉 到
博士 后
refresh ed
n ug
庞 大
拼 音
首 选
19 22
一个 小
运动 的
scat ter
为 导向
和 完善
微 波
未 成年人
标 本
树 木
涌 现
特 效
确 定的
un finished
ens ible
sub aru
aud ition
ml b
实施 方案
critic ized
拖拉 机
t ly
z ap
不 一
在 学校
填 充
对 自己
度 过
的 照片
督 导
輕 鬆
mo di
mil li
教师 的
先进 集体
nom inee
p pc
倡 议
有 农户
眼 中
色 泽
订 购
gr aft
br ah
av ings
bl and
head board
scal ed
optim ism
高等 院校
7 pm
世 的
娛 樂
拍 攝
错 过
飞 驰
re ich
de pt
im es
ill in
fe ared
ta h
sm iled
uni x
现代 化的
cum bers
污水 处理
disrupt ive
с а
上 面的
为 自己
巴 士
有 机会
本 赛季
格 外
津 贴
耳 朵
舒 適
to fu
ad h
fore see
mer its
econom ists
计划 生育
精神 的
的话 题
pier ce
下 次
儿 科
兴 起
吉 他
名 校
在 不
畅 通
范 文
颠 覆
in accurate
re members
可以 看出
sav ior
soph ie
房地产 开发
protest ers
抢 救
简 化
苏 宁
re design
li eu
cr ate
没有 什么
jac obs
统一 的
immers ion
vatic an
j ian
t ink
了 吗
全 家
女 王
娃 娃
或 不
房 源
文 中
金 屬
ro ckets
gr u
19 6
fl ap
wood working
注意 事项
surger ies
pitch es
tanz ania
v 3
似 的
分 明
命 题
对 着
想 想
肥 胖
观 摩
违 约
it ud
ad ers
cl air
br i
sand ra
计划 的
rac ed
surround s
本站 不
flood s
neat ly
新时代 中国特色社会主义
的前提 下
inflat able
encap sul
一 贯
专 职
和 工作
土 豆
复 苏
推 介
it us
mar a
19 1
pp p
upload ing
rodr iguez
下 一个
互 利
出 貨
听 了
報 導
它 可以
容 纳
搬 家
生 猪
的 石
组 装
自 豪
薪 酬
这 张
） ,
to my
con vict
fore stry
wa ver
grant ing
memo ir
公积 金
r affle
仅 为
们 在
嚴 重
磨 损
间 断
to ggle
pre fers
place bo
bre ws
行业 中
belong ed
asy m
rhe um
distress ed
reper toire
8 66
万 物
微 量
护 栏
脱 落
ag m
el m
dis gust
cer v
heart y
interview ing
prosecut ors
体制 改革
twil ight
9 am
? ).
主 義
也 曾
叙 述
爆 料
貸 款
be ware
go ats
back bone
一个 是
govern ors
cir ca
人民 日报
van a
twi sts
enz ie
3 天
l f
l act
会 所
就 此
居 家
总 支
正 版
氨 酸
进 士
er ase
im ir
ass orted
vit ro
知名 的
unexpected ly
出栏 肉猪
4 25
f uss
w ink
一 心
剂 量
挑 戰
普 查
说 过
近 百
in convenience
se in
gr iff
pre paid
char gers
ra iders
tu ck
hit ler
conduct s
sky line
mold ed
东莞 市
evangel ical
不 堪
几 百
密 碼
寒 冷
意 識
执 照
来 临
op po
man ila
】【 ：
19 21
15 个
bar r
organ ising
terr ifying
gb p
农户 住房以
采访时 表示
动 能
和 我
年 3月
沉 积
營 銷
顿 时
ar tery
se is
work space
ple a
wind y
艺术 的
hun ts
oy ster
subsid iaries
gum s
美特 之約
mat520 美特之約
b list
f ang
p int
华 侨
参 保
小 微
就 可
扇 贝
评 委
顶 部
风 景区
he w
ant ar
land er
从事 第一产业
距离 村委会
brace lets
sevent y
biscu its
u th
w we
” ：
不 确定
总 之
毗 邻
浸 泡
白 的
ant ine
over flow
acade mia
distribut ing
模式 的
fru ity
nic ot
sus sex
plag iar
s ings
v ance
不 做
体 现在
命 中
州 的
營 養
牛 仔
调 用
起 到了
in active
sp ic
prim itive
sequ encing
版权 归
teles cope
reliev ed
suspic ion
c pr
e ine
先 天
大 自然
定 为
让 大家
ace ll
absor bing
g ings
j b
j f
l ng
台 上
感 悟
环 绕
all an
if ty
fle a
cali ber
hes it
andre ws
stri ker
pist ol
a ided
全 局
年 产
归 纳
机 型
答 复
裝 置
那 天
un matched
ever green
def ended
terr ibly
的新 型
发行 的
有趣 的
prejud ice
equilibr ium
巴基 斯坦
? .
y ol
y un
。 ②
之 用
克 尔
名 词
唯 有
地 在
实 木
牵 头
裂 片
ro cke
ho ot
part isan
recogn izable
sn akes
—— “
guess ed
transl ator
oo o
tables poon
首先 要
compul sory
g arr
你 知道
副 秘书长
四 是
月 的
期 权
比 上年
见 过
ure thane
che es
工作 和
mult ic
更多 信息
preser v
defend ers
decal s
transc end
j v
m 1
上 半
勤 奋
晶 体
落 實
dest ined
augh t
移动 互联网
clar a
吸引 力
年轻 的
5 a
m apped
了 大量
北 海
当 作
群 岛
迎 来了
con soli
建设 项目
历史 文化
不断 提升
slow ed
demon s
mart ine
vibr ating
drain ed
f idelity
上 报
威 尼斯
店 面
风 暴
il ateral
my r
eng ages
side walk
face ts
sch mid
pan asonic
电影 节
dial ect
宣传 部
tap es
涉及 到
auxili ary
s crib
亦 有
区 委
提 议
新 手
泉 水
瑜 伽
生 气
真 心
蝴 蝶
西 湖
he aled
work manship
kno x
resol ving
n oun
事 迹
年 8月
开 阔
章 程
血 糖
en vy
ut ens
19 24
att ire
specim ens
z uc
与 我们
世 代
屁 股
帮 扶
诸 如
跨 国
tor ah
cel lo
协会 会员
iron ically
alo gy
不仅仅 是
syll abus
k amp
n ix
希 尔
所 说的
０ ０
om ar
ch illed
ro x
kno ts
bat ting
oblig ed
toss ed
dino saur
距离最近的 集贸市场
notor ious
fuzz y
drizz le
一 律
光 绪
竞 价
運 輸
un stable
gy p
remo de
prevent ative
mir ac
66 6
compe lled
breach es
persuas ive
1 名
4 pm
兑 换
制 片
区 和
又 要
心 血管
排 队
珊 瑚
的 道路
精 灵
鼓 舞
br aking
comm enced
ru ined
emphas izes
semin ary
rey nold
合资 险企
liby a
8 k
上 百
奶 茶
平 易近
是 美国
脉 冲
訂 購
配 音
金 奖
ch ini
he it
20 s
spec ifies
fa h
导致 的
党委 副书记
高效 的
d ling
s ine
中 海
众 多的
墙 面
实 控
想 着
海 域
自 在
st i
技术 与
198 1年
mis erable
commission ing
graf fit
4 70
h wy
v ist
的 食物
ten ham
progress ed
multi player
ody nam
harmon ic
kather ine
h ys
下 半
与 会
中 式
做 成
即 是
头 痛
强 国
演 示
的 問題
th am
be aver
up stream
into ler
中国 企业
follow er
195 6年
indu ce
chor ds
preced ed
corp us
脱贫 攻坚
anesthes ia
u er
制 订
却 被
年 限
的 农户
请 使用
迹 象
酱 油
per sever
co arse
mar kings
18 1
ped ro
您的 权益
进一步 加强
监督 管理局
habit ats
结束 了
dict ator
加 之
录 制
昆 虫
电 工
的 黑
穿 过
表 述
農 業
st d
社会 责任
domin ance
mun ition
glu ed
phosp hate
tus can
vars ity
l lo
n ig
en forced
om g
be k
sing led
hear ings
fuel ed
科研 成果
cole man
plaintiff s
s ich
乳 腺
制 备
并 向
每 一次
浦 东
表 格
退 役
as suring
ent rust
cost co
sch ne
第一 大
guide line
gla zing
arom atic
embarrass ing
6 20
a ired
会 导致
殖 民
港 股
的 發展
美 学
骄 傲
龙 华
re pt
as certain
satell ites
impul se
f ou
变 的
投 产
纯 电动汽车
震 惊
lo tion
un wind
ha v
cha otic
财务 管理
eigh teen
t ory
at ra
en large
ha th
sho cks
cur tis
cy clo
swe ar
jud y
spring er
商品 的
threat en
说明 书
refresh ments
始终 坚持
tiff any
h ond
t aps
u cla
下 车
全 日
在 你
年 1月
注 冊
agree ing
influ encers
honor able
全村 经济总收入
intern ships
也 让
买 的
生 化
直 升
er ation
ir respective
off ence
30 9
black s
国际 贸易
90 万元
vari ability
modif ying
astro logy
hash tag
jagu ar
之 意
了 自己
人 是
侦 查
很 小
抱 怨
泰 山
語 言
in comes
工程 学院
功能 性
sl ash
ni h
slo ven
新能源 车
enrich ment
ethyl ene
d ans
s ire
s ling
光 线
報 名
将 对
搬 迁
赌 博
转 为
en os
man ning
more d
sp un
ren amed
提供 一个
系统 和
ane cdo
motor cycles
sciss ors
仲 裁
报 表
收 窄
是 全国
民 用
点 头
的 做法
福 特
第 7
走 访
面 積
at r
wi m
ex tern
incre mental
国家 标准
auto mobiles
acqu ainted
tables poons
grass roots
interpret ations
分布 于
persist ence
compos ers
krish na
d k
s cho
s cuba
尚 书
怪 物
情 侣
棉 花
特 定的
花 瓣
西 瓜
车 上
re iter
it ic
se oul
av atar
just ification
soc ietal
speed ing
工业 和
这一 次
有关 的
sha wn
resem ble
供 货
me h
by te
comp ute
pres by
sk a
az e
…… ……
gam ma
richard son
书 院
伯 特
公 开发
太 极
成 績
纯 粹
薄 弱
较 强
關 系
19 05
产品 和
时间 为
lat itude
pray ed
h 1
z as
为 之
人 对
作 曲
保 暖
兵 团
在 我们
定 点
有 三
诱 惑
量 大
ur ved
dis appoint
la uder
fl ute
sapph ire
+ ,
3 个月
久 久
合 唱
大 纲
序 列
战 国
獨 立
em ul
str ands
bu ch
real ism
mail box
expert ly
cream s
会计 师
人大 代表
illum inated
quil ts
solic itor
wend y
protagon ist
彼 得
機 器
过 大
钢 结构
ll p
ag h
graph ies
结构 调整
gene alogy
drum mer
biom ass
ethere um
做 一个
南 通
皮 膚
面 粉
ab rupt
ste alth
opt ics
scre am
pist on
适当 的
graffit i
% ），
会 不会
想 不到
有 多少
梦 幻
海 报
监 护
贴 近
高 新区
19 08
质量 的
55 5
! ,
品 尝
我 國
聲 音
un den
add itives
sur rey
super star
eu gene
人民 检察院
film maker
isa iah
deleg ate
righteous ness
为 我们
你 好
地 段
如 意
扩 建
歌 唱
派 的
等 职
ta j
fo s
view point
vel t
program mers
ls en
cup board
shel ving
比如 说
bever ly
学士 学位
ethan ol
定 量
家 長
开 办
微 微
滋 味
锦 标
no ises
ol ph
ph ere
lit eral
bat tal
blue print
german s
combust ion
k c
反 應
新 媒体
机 体
真 理
部 和
23 8
adap ting
tun nels
kid n
资产 管理
isol ate
snor ke
triv ial
alexand ria
村内主干道 均为
n un
r iley
做 过
前 所未
在 京
外 表
妊 娠
演 艺
狮 子
长 远
re structuring
am mon
man a
od a
19 4
over haul
30 年
成为 一个
document ing
pear ls
年内 出栏肉猪
与 您
债 权
典 范
抗 战
橄 榄
请 问
50 s
ret te
ham burg
thank ed
transport ing
fract ure
oxid ation
luther an
| |
僵 尸
内 衣
后 又
家 企业
片 区
风 扇
ion a
ro land
for getting
op ting
一般 来说
kar ma
kick starter
fiber glass
dioces e
з а
м е
买 房
宣 告
廣 泛
梅 花
ol ics
pro bio
wr ought
cour teous
break out
国际 机场
sustain ing
学术 论文
observ atory
cultiv ation
x 2
可 通过
还 未
都 非常
al kal
co c
bo g
cor responds
air bnb
可以 根据
!! !!!
wear able
assemb lies
座谈 会
goss ip
得天 独
u fc
w ary
和 文化
来 进行
致 辞
ch ia
co ils
wor cester
可以 直接
christ ina
door step
park inson
aa aa
awa it
catastro phic
steward ship
lieuten ant
3 倍
> .
b lot
专 卖
出 具
分 手
占 用
多 层
始 于
座 位
省 部级
绑 定
这 时候
am munition
ha iti
ard u
19 13
trans forms
post card
vo gue
rich er
了一 条
hi kes
科创 板
也 好
城 堡
引 资
弹 簧
晋 级
用 以
興 趣
购 车
ty r
ground breaking
fest ivities
finger print
subur b
g land
m ca
加 固
年 纪
开 门
拉 丁
op ol
ins ign
其他 人
合作 关系
ax ial
captiv ating
payou t
cance led
odys sey
m ite
严 禁
年 9月
年 5月
很 简单
患 有
晚 间
留 学生
的 政治
矿 业
管 制
雷 诺
ic ans
he e
promo ter
behavi ours
百分 之
deriv ative
一对 一
新中国 成立
urg ency
户居住于 土木结构住房
爱尔 兰
j ong
三 个月
山 脉
废 弃
的 权利
肚 子
芬 兰
饱 满
en act
ca uli
vent il
graph ically
26 6
distribut ions
visual ize
lex ington
t sun
侧 面
商 務
工 地
接 地
时 任
疑 似
的 电影
經 常
讓 你
is i
as ha
as ers
ch s
sim p
gar nish
bund les
subsid ies
crunch y
* ,
c 3
l apping
学 费
忠 实
恶 性
愤 怒
无 不
有 两个
粒 子
被 动
还 款
in justice
dr up
sa urs
hel per
fl int
ps 4
sw ings
ax le
劳动 合同
soup s
stitch ed
1 m
8 77
低 保
显 卡
木 结构住房
洗 涤
ver ts
te ak
per ennial
00 000
pres criptions
syn dic
bloom ing
24小时 内
政协 委员
suz uki
从事第一产业 人数
s j
w ong
全 场
有 用
笑 着
統 計
re actor
ant ro
form ations
pain ters
impact ing
还有 一些
foreign ers
2006年 底
他們 的
awak ening
kaz akh
d aring
江 市
溫 度
烘 干
的 任务
in verse
sp ag
ty ped
ps c
左右 的
数量 和
html 5
kim ber
scoo ter
unci ation
0 183
x r
克 里
勇 士
會 有
考 入
误 差
im f
pl aus
there in
ric ular
hal e
individual ized
90 9
pi per
flor ist
sugar s
人类 的
awa ited
tempt ation
f ading
v all
企 图
利 好
启 用
必 不可
淋 巴
满 满
甜 蜜
節 目
變 成
re produced
ib an
金融 服务
bour bon
poll ut
比利 时
了 两
了 近
動 物
北 极
商 的
实 务
报 导
死 的
皮 革
re mn
un employed
ts p
ca iro
je opard
sk u
专业 委员会
def i
investig ative
人们 对
fro sting
f w
n ite
合 规
大 豆
尺 度
年 4月
水 产
短 暂
首 相
re viewer
tr immed
av engers
cur l
human e
final ist
规模 的
conserv atory
违法 被
犯罪 嫌疑人
resign ed
世 紀
屬 於
胡 萝卜
運 行
to sh
im mac
fr ying
man o
市场 需求
compet itiveness
应用 的
年的 时间
领导 班子
mile stones
refr ain
crack ers
rome o
写字 楼
mat520美特之約 造型達人
s x
v iz
丙 烯
分 级
延 迟
替 换
概 述
百 强
in let
tr un
av ant
sul tan
sal ty
present er
gl ou
ball room
一定 程度上
过去 的
ku wait
奥林 匹
所 致
支 队
更 重要的是
灯 具
的 重点
監 督
war rants
了解 了
complex es
34 1
patrio t
prevail ing
n ir
t g
今 晚
商 人
堵 塞
开 源
得 不到
快 来
是 世界
者 在
设 在
通 车
on wards
re pay
sh ave
sa k
ph u
car pe
hu bby
acqu aint
欢迎 您
成都 市
swing ing
sevent een
maz da
w to
之 乡
几 个月
分 校
势 头
寻 常
應 當
特 长
醫 生
at on
ad as
00 7
sp ie
mar ian
car ts
nas al
attribut ion
完整 性
素质 教育
soli ds
温馨 提示
农民收入 主要以
lago on
" ),
使 他
修 养
型 企业
增 产
是 将
石 英
穿 梭
統 一
ly sis
co ke
ye ll
dis like
sk id
net te
finan ced
那么 多
drag ged
nine teenth
rev oc
c vs
p able
q b
不 去
世 人
会 让
同 胞
抑 郁
邀 請
风 水
风 貌
00 公里
sp ind
par aly
50 th
发展 到
mal colm
lunch es
glad ly
发表 论文
查看 全文
tattoo s
lope z
ч е
供 需
光 源
攻 关
本 月
棕 色
的 自然
等 为主
精 通
起 草
ty ing
dis continued
col der
ted ious
val leys
市场 化
vi ii
这个 时候
conf ession
advis es
wit t
simultane ous
emin ent
thie ves
t asked
в е
向 下
少 先
房 地
适 度
re finance
good will
ri um
fac to
存在 着
bright en
shar ply
compens ated
frag ment
lav ish
greeting s
reynold s
五 星
山 上
幾 乎
手 持
收 回
电 厂
签 名
米 兰
自 杀
镀 锌
le thal
under gone
控制 在
最佳 的
700 元
货币 政策
jen kins
外出务工 人数
muffin s
3 名
a ic
公 園
前 身
对 称
流 出
阳 县
ay urved
sp f
dr ills
app a
fl am
市场 营销
40 5
web cam
主要 依靠
专业 生产
mc car
eth no
cot tages
意义 的
narr atives
jas mine
f af
v ander
】 ：
分 之一
卖 出
周 刊
多 是
将 有
巅 峰
設 置
这 件
en ig
id io
co ps
sol vent
国家 队
sl ated
influ encing
lack ed
tweet ed
骨干 教师
strand ed
defer red
consoli date
6 80
台 风
奖 学金
奥 迪
浴 室
海 底
用 量
统 战
视 力
ag ara
du es
land fill
dep icts
是一 種
ral eigh
tur bul
club house
prob ation
vod ka
seiz ures
甲状腺 癌
c é
。 (
值 的
双 重
回 合
峡 谷
电 极
督 查
par sley
past el
cup cake
竞争 对手
prison er
b if
d wi
r g
互 助
內 的
历 时
品 类
在 小
多 万元
托 管
没 什么
质 的
om as
me gap
iv able
la gos
austral ians
一直 以来
今年 以来
holo caust
g amer
n fc
t ended
传 送
儿 女
前 端
加 载
又 一次
en et
ind ices
car ers
ob servers
lit ur
organ ism
企业 信用
bed ford
40 3
23 9
第一 百
screen shots
curren ts
export ing
h dr
不 适
也 可能
坐 标
搬 运
mar ines
install ers
社会 保障
ret iring
south ampton
wash ers
swi r
invent or
aer ob
marsh m
kash mir
l ation
“ .
不 觉
分 流
man ned
over coming
under went
11 个
master ing
分析 了
fres co
2019年上半年 中国
2 倍
c im
p anda
万 里
光 纤
分 区
在 同
意 義
月 亮
门 前
in arian
right ly
spr aw
交通 大学
hack er
flick r
小 客车
放 到
法 規
测 绘
红 利
美 景
胸 部
荧 光
钱 的
阴 阳
ber ra
sm ug
投资 的
共同 努力
accommod ating
fib ro
winst on
营商 环境
k ens
v ps
x d
共 拥有
横 向
比 賽
深 厚的
等 情况
en see
not icing
por to
sho vel
person a
fil ename
pin n
motiv ational
真的 很
inher ently
j ia
山 地
支 架
杀 菌
着 眼
至 此
邓 小平
香 蕉
am using
ep son
water falls
25 1
24 00
super markets
road side
season ing
walk ers
网络 的
作品 的
las ers
锦标 赛
4 11
z ak
以 前的
味 精
和 尚
喜 好
巴 塞
機 制
社 科
莱 坞
预 报
on o
po ised
man ito
bl ers
home stead
led ger
di as
服务 和
mission ary
》， 《
版权 所有
c ly
k ut
t ally
一 举
一 书
哪 家
套 路
年 在
推 送
日 志
考 量
財 政
fr aser
ans on
mor ality
super man
质量 和
grand son
counter part
incident ally
discre et
deriv atives
三产业 收入
0 10
о n
却 不
品 位
年 7月
的 责任
绝 大多数
自 称
边 境
金 色
高 尔夫
cons oles
hand ing
sol itary
har old
short cut
28 5
mother board
fi at
context ual
5 px
b ial
化 管理
就 好
底 线
悄 悄
涉 案
球 的
白 银
trans former
ply mouth
uk u
comput ation
aven ues
divers ified
experiment ation
caes ar
cauli flower
党 和
卧 室
可 爱的
溝 通
灾 难
鍋 爐
wh op
cor related
mon ter
管理 员
sun flower
经验 和
rot tle
身体 健康
benefic iary
natal ie
perpet ual
diarr hea
d pi
z um
一 组
反 正
增 收
成 像
柔 性
跟 我
颁 发的
cho w
par ch
anta gon
stat ues
投资 人
lip id
tran qu
legisl ators
党的 十九大
三角 形
prophe ts
brun swick
场 馆
攝 影
犹 豫
限 定
th rottle
al locate
mo ose
ma ids
road map
工资 性收入
cow boys
bent ley
o om
制 动
否 认
忙 碌
户 口
in hab
pro claimed
te ster
ma ins
inter personal
dis placement
ash tra
equ itable
equip ments
exhib iting
cig ar
thumb nail
flaw ed
artic ulate
zim mer
theli al
l al
他 又
在 这一
工 信
檢 測
炸 弹
质 地
ar ose
bl amed
电子 邮件
tough er
stitch es
熟悉 的
proli fic
plun ge
2 100
3 分
d led
也 需要
公 子
十 月
即 時
已 于
年 12月
才 可以
招 募
有 几
為 準
ch ir
ch ery
ch illi
mo p
he ctic
fin ite
necess ities
ler oy
sn ag
zomb ies
enlighten ment
占有 率
rehear sal
felon y
e o
p st
口 服
有 乡村人口
汇 总
is c
con tested
sch u
clin ically
商业 模式
创作 的
是一家 集
dazz ling
ineffect ive
( .
一 千
啟 動
外 套
un install
ne c
wor ding
ob struct
hu es
space craft
author ize
了一 份
cro ck
spark ed
a ha
代 言
再 一次
将 近
提 案
支 配
放 电
流 转
药 材
语 法
％ ；
ca ir
que str
collabor ated
出版 的
decre e
suppress ion
tuc son
unden i
d ac
大 火
工 匠
批 次
錯 誤
in correctly
the or
your selves
co pic
dif fusion
15 分钟
主义 的
区域 内
tight en
减少 了
mig rate
优惠 券
过滤 器
moham med
intimid ating
intrins ic
l und
m als
v ain
兴 业
兼 顾
剪 髮
勞 動
发 了
围 棋
底 层
新 材料
瓷 砖
鞋 子
ar is
do e
lim b
dom ino
cou pe
minim izing
anth a
batch es
cow boy
redund ant
z od
只 见
固 醇
眼 里
第 12
过 剩
重 重
re create
ver non
he tti
inter mit
miss iles
sil ky
然后 再
drag ging
peter son
jum per
assem bling
shield s
fet ch
acknowled ges
rhyth ms
ambi ance
electrom agnetic
互 動
国 立
声 称
機 場
眼 的
细 则
變 更
re a
en lar
ve e
fr is
into xic
cer taint
sav age
film makers
sn u
mall s
phosp h
越來 越
5 x
提 现
溶 剂
的 车
un interrupted
20 万
night life
就是 一个
distr actions
demo graphics
counsel ors
mood y
aggress ion
短期 内
1920 s
extin ction
万 达
丧 失
之 余
天 内
斯 克
术 后
泄 露
法 则
秋 冬
至 关
逮 捕
wh ims
pro poses
00 3
pre ston
sim ulated
30 分钟
contin ents
的人 群
origin als
wag ner
垃圾 分类
immers ed
decim al
o te
完 备
小 伙伴
成 份
插 件
没 人
落 户
降 雨
and es
ar ro
ch ats
ur ging
dis covers
pit t
breath able
rif t
vast ly
elli ott
crum bs
reinforce ment
ecu ador
ceram ics
guate mala
d 2
o ath
t 2
t k
与 服务
你 有
原 有的
族 的
检 修
沿 线
篇 章
约 占
美 化
co ole
ster il
rad ial
stat utes
设备 和
boast ing
bald win
handic ap
7 60
8 55
z am
事 的
保 罗
置 業
en listed
if a
um en
br im
uni qu
spect ral
maxim ise
特别 是在
体系 的
coll age
统计 局
phy to
专业从事 于
古老 的
3 b
n x
t rent
л а
” ——
在 高
处 长
核 查
欧 冠
游 乐
自 家
都 不会
te sto
cl um
ide als
fo oth
bl unt
其中 从事第一产业人数
希望 通过
sleep s
advantage ous
新时代中国特色社会主义 思想
p agan
主 播
塔 尔
好 运
用 法
走 廊
ob sole
bar on
管理 部门
night ly
获得 的
demo s
建立 健全
hang s
ht m
corner stone
gly cer
persu ade
pave ment
农户总数的 100
cres cent
gujar at
7 人
p us
儿 的
拿 下
指 的是
来 访
ar ial
wi eld
ll as
stud s
[...]
